unsigned char converted_lite_tflite[] = {
  0x18, 0x00, 0x00, 0x00, 0x54, 0x46, 0x4c, 0x33, 0x00, 0x00, 0x0e, 0x00,
  0x18, 0x00, 0x04, 0x00, 0x08, 0x00, 0x0c, 0x00, 0x10, 0x00, 0x14, 0x00,
  0x0e, 0x00, 0x00, 0x00, 0x03, 0x00, 0x00, 0x00, 0xa8, 0x13, 0x00, 0x00,
  0xd0, 0x0e, 0x00, 0x00, 0xb8, 0x0e, 0x00, 0x00, 0x04, 0x00, 0x00, 0x00,
  0x0b, 0x00, 0x00, 0x00, 0xa8, 0x0e, 0x00, 0x00, 0xa8, 0x0d, 0x00, 0x00,
  0x40, 0x0d, 0x00, 0x00, 0xf0, 0x06, 0x00, 0x00, 0xe8, 0x06, 0x00, 0x00,
  0xcc, 0x06, 0x00, 0x00, 0xc4, 0x06, 0x00, 0x00, 0x64, 0x06, 0x00, 0x00,
  0x5c, 0x06, 0x00, 0x00, 0x0c, 0x00, 0x00, 0x00, 0x04, 0x00, 0x00, 0x00,
  0x38, 0xed, 0xff, 0xff, 0x8a, 0xf2, 0xff, 0xff, 0x04, 0x00, 0x00, 0x00,
  0x40, 0x06, 0x00, 0x00, 0x97, 0xe6, 0x1b, 0x3e, 0xb6, 0xfd, 0x97, 0xbe,
  0x71, 0x0e, 0x21, 0xbe, 0x58, 0xca, 0x2d, 0x3f, 0x07, 0x19, 0xe4, 0x3e,
  0x0b, 0x5e, 0x2f, 0x3d, 0xf2, 0x9f, 0x1c, 0xbe, 0x92, 0x7e, 0xa9, 0x3e,
  0xa0, 0x27, 0x29, 0x3e, 0xae, 0xd9, 0xec, 0x3e, 0x74, 0xcd, 0x62, 0xbe,
  0x02, 0x73, 0x93, 0x3e, 0x0f, 0x43, 0x2e, 0x3d, 0x52, 0x2d, 0xba, 0xbe,
  0x14, 0x4f, 0x07, 0x3e, 0xc2, 0x9d, 0x00, 0x3e, 0xc8, 0xb1, 0x87, 0xbe,
  0xa9, 0xc0, 0x4c, 0xbe, 0xba, 0xf7, 0xf7, 0x3e, 0x64, 0x9c, 0x8f, 0xbe,
  0xd3, 0x96, 0x5e, 0xbe, 0x53, 0xe2, 0xb2, 0xbe, 0xb8, 0x1e, 0xb4, 0x3e,
  0x78, 0xda, 0x86, 0x3d, 0x96, 0x16, 0xc9, 0xbe, 0xd4, 0x69, 0xd0, 0xbd,
  0x80, 0x2e, 0xbc, 0xbe, 0xea, 0xdb, 0x0d, 0x3e, 0xfd, 0xb3, 0xa0, 0xbe,
  0xe6, 0x65, 0xaa, 0x3e, 0x99, 0xb7, 0xa7, 0xbe, 0xe7, 0x4f, 0xa2, 0xbe,
  0xc7, 0xf6, 0xb2, 0x3e, 0x45, 0x0a, 0x57, 0xbd, 0xa7, 0xc4, 0xf9, 0xbd,
  0xe3, 0xd4, 0x09, 0x3e, 0x7c, 0x00, 0x10, 0x3e, 0xdd, 0x68, 0xa2, 0x3e,
  0x8a, 0x94, 0x03, 0x3e, 0xc6, 0x52, 0xaa, 0x3e, 0xdf, 0x42, 0xa6, 0xbe,
  0x11, 0x18, 0x44, 0xbe, 0x2f, 0xaf, 0xfb, 0x3d, 0x22, 0x48, 0x4f, 0x3e,
  0xed, 0x43, 0xb5, 0xbe, 0xc0, 0x38, 0x77, 0x3c, 0x76, 0x10, 0x37, 0xbe,
  0xb4, 0xf9, 0x69, 0x3e, 0xef, 0x9b, 0x7f, 0x3d, 0x96, 0x28, 0xc5, 0xbe,
  0xb3, 0x51, 0xb2, 0xbd, 0xbc, 0x11, 0x55, 0x3e, 0x22, 0x88, 0xb2, 0x3e,
  0xae, 0x76, 0xcc, 0xbd, 0x3b, 0x23, 0xaf, 0xbd, 0x2a, 0xb0, 0xb1, 0x3e,
  0xeb, 0x6b, 0xb7, 0xbe, 0xec, 0x3d, 0x02, 0x3e, 0x31, 0x54, 0x9e, 0xbb,
  0xa2, 0xae, 0xaf, 0xbe, 0x0f, 0xd0, 0x05, 0x3e, 0x56, 0x3d, 0x87, 0xbe,
  0xdd, 0x2a, 0x9d, 0xbe, 0x2d, 0x30, 0xca, 0x3d, 0xd4, 0xc5, 0xca, 0xbe,
  0x74, 0x12, 0x13, 0x3e, 0xae, 0x52, 0xa1, 0xbe, 0xbc, 0xc5, 0xb1, 0xbe,
  0x48, 0x10, 0x94, 0x3e, 0x01, 0x9b, 0x0d, 0xbe, 0xec, 0x08, 0x9a, 0xbe,
  0x04, 0x77, 0xe0, 0x3d, 0x00, 0x9c, 0x25, 0xbc, 0x1c, 0xbf, 0x88, 0x3e,
  0xcb, 0x23, 0x8e, 0xbe, 0xd7, 0x10, 0x1d, 0x3d, 0x75, 0xef, 0x4c, 0xbe,
  0xae, 0xa6, 0x54, 0xbe, 0xb4, 0xd9, 0x93, 0x3d, 0x52, 0x76, 0x90, 0xbe,
  0xee, 0x30, 0x3b, 0xbf, 0x26, 0x8b, 0x2f, 0x3e, 0x94, 0xba, 0xfc, 0xbe,
  0x49, 0x97, 0x79, 0x3e, 0x3c, 0xcd, 0xaa, 0x3e, 0xe0, 0xcf, 0xc3, 0x3d,
  0xdc, 0xe7, 0x73, 0xbe, 0x8c, 0xcc, 0x25, 0xbf, 0xdd, 0x68, 0x84, 0x3e,
  0xfb, 0x5b, 0x0b, 0x3f, 0x27, 0x0e, 0x9b, 0xbd, 0x2e, 0x63, 0x33, 0xbe,
  0x41, 0xa4, 0x8d, 0xbd, 0xc6, 0xbb, 0xae, 0xbb, 0xe6, 0x62, 0x46, 0xbe,
  0xbc, 0x1d, 0x32, 0xbe, 0x80, 0x52, 0xa2, 0x3e, 0x3f, 0x7d, 0xa2, 0xbe,
  0x86, 0x19, 0x79, 0xbd, 0x11, 0xc0, 0x18, 0x3e, 0x1f, 0x85, 0xc8, 0xbe,
  0xdb, 0xc8, 0x0a, 0x3f, 0x0d, 0xcc, 0x4f, 0xbf, 0xea, 0x32, 0xcd, 0x3e,
  0x1b, 0x62, 0x05, 0x3f, 0x58, 0x1c, 0x8e, 0xbe, 0x92, 0xf4, 0x55, 0x3e,
  0x79, 0x41, 0x47, 0xbf, 0xad, 0x1a, 0x06, 0x3f, 0x96, 0x8b, 0x0b, 0x3e,
  0xd5, 0xac, 0xa7, 0x3e, 0x9e, 0x11, 0x03, 0xbe, 0x49, 0xc3, 0x22, 0xbd,
  0x59, 0xdc, 0xff, 0x3e, 0x45, 0xad, 0x22, 0x3f, 0xc8, 0x52, 0x0d, 0xbf,
  0x84, 0xe5, 0x4c, 0x3e, 0x29, 0xfb, 0x08, 0x3d, 0x04, 0xb5, 0x0a, 0x3e,
  0x95, 0x82, 0x9d, 0x3e, 0x77, 0x63, 0x3a, 0xbf, 0x76, 0xf5, 0xc1, 0x3e,
  0xc2, 0x48, 0x88, 0x3d, 0x04, 0x5c, 0x5d, 0x3f, 0x3c, 0x8b, 0x8c, 0x3f,
  0xd7, 0xcc, 0x52, 0xbe, 0xaa, 0xc9, 0x03, 0x3f, 0x52, 0xbf, 0x13, 0xbf,
  0x89, 0x6e, 0x28, 0x3f, 0x72, 0x54, 0x29, 0x3b, 0x78, 0x3d, 0xda, 0x3e,
  0xa6, 0x15, 0xa6, 0xbd, 0xf0, 0x42, 0x9e, 0x3e, 0x08, 0x4b, 0x4a, 0x3e,
  0x72, 0xf5, 0xfe, 0x3e, 0x2a, 0x0e, 0x3d, 0xbf, 0x62, 0x8f, 0x0c, 0xbe,
  0x33, 0xf1, 0x0d, 0x3f, 0x05, 0xdc, 0xa9, 0x3d, 0xec, 0x3d, 0x74, 0x3e,
  0xf9, 0x4a, 0x42, 0xbf, 0x38, 0x8d, 0x16, 0x3e, 0x89, 0x6f, 0x14, 0xbe,
  0x24, 0x63, 0xfc, 0xbe, 0x9c, 0xa4, 0x97, 0x3e, 0x88, 0x67, 0xa1, 0x3e,
  0xac, 0xce, 0x98, 0xbe, 0xbb, 0x67, 0x74, 0xbe, 0x17, 0x6b, 0x88, 0x3e,
  0xd4, 0x13, 0x90, 0x3e, 0x2b, 0x53, 0x8e, 0xbd, 0x9c, 0xa3, 0x67, 0xbe,
  0x4d, 0x2d, 0x6b, 0xbe, 0xe8, 0x93, 0x4b, 0xbd, 0xe8, 0x11, 0x10, 0xbf,
  0x68, 0x33, 0x02, 0x3f, 0xf6, 0x8f, 0x94, 0xbe, 0xd9, 0xcc, 0x75, 0x3e,
  0xcd, 0xc4, 0xf5, 0x3e, 0xb6, 0x73, 0xc7, 0x3e, 0x71, 0x2b, 0x94, 0xbe,
  0x1c, 0xb3, 0xbd, 0xbd, 0xc1, 0x05, 0x26, 0x3e, 0x59, 0xe4, 0x8c, 0x3e,
  0xe1, 0x53, 0x46, 0x3d, 0x51, 0xc9, 0x2b, 0xbe, 0x3e, 0x3a, 0x84, 0xbd,
  0xd7, 0xc0, 0x20, 0xbe, 0x93, 0xc0, 0x55, 0xbd, 0xa3, 0xa4, 0x40, 0x3f,
  0x06, 0x7a, 0xe0, 0xb8, 0x8d, 0x3e, 0x4b, 0x3e, 0xa4, 0xea, 0xbb, 0xbe,
  0x4b, 0xbe, 0x4b, 0x3e, 0xd6, 0x3c, 0x4d, 0xbd, 0x40, 0xba, 0xa9, 0x3e,
  0x00, 0xe9, 0x88, 0x3e, 0xce, 0x64, 0x94, 0xbe, 0x7c, 0x42, 0x55, 0xbe,
  0xd4, 0x79, 0xc1, 0xbd, 0xd6, 0x0e, 0x2f, 0x3e, 0x80, 0x82, 0x43, 0x3e,
  0xae, 0x6d, 0x96, 0xbe, 0xc1, 0x82, 0x91, 0xbe, 0xe4, 0x3e, 0x1f, 0x3a,
  0xf5, 0x67, 0xa8, 0xbe, 0xcd, 0xc5, 0xc8, 0xbe, 0x76, 0xa6, 0x7c, 0xbe,
  0x7c, 0x14, 0x06, 0xbf, 0xa1, 0x1a, 0x74, 0x3e, 0x86, 0xf7, 0x8e, 0xbe,
  0x0b, 0xeb, 0x49, 0x3e, 0xbb, 0xb3, 0x89, 0xbe, 0x00, 0x8c, 0x8b, 0x3e,
  0xdc, 0xdf, 0x83, 0x3e, 0x1e, 0xf9, 0x69, 0x3e, 0xf1, 0x88, 0xa0, 0xbe,
  0xf5, 0x8a, 0xac, 0x3e, 0x60, 0x16, 0x53, 0x3d, 0x8a, 0x6d, 0x1c, 0xbf,
  0x4a, 0x41, 0x62, 0xbe, 0x8c, 0xb0, 0x73, 0xbe, 0xeb, 0x79, 0xae, 0x3e,
  0x87, 0x99, 0x08, 0xbe, 0xe7, 0x29, 0x9d, 0x3e, 0xf0, 0x1a, 0x3b, 0xbd,
  0xb2, 0x93, 0x4e, 0xbe, 0x9b, 0xa2, 0x86, 0xbe, 0x3f, 0x2e, 0x90, 0xbe,
  0xad, 0x59, 0x21, 0xbe, 0x39, 0x9c, 0x45, 0x3d, 0xd2, 0x8d, 0x74, 0x3d,
  0x51, 0x51, 0x6c, 0xbe, 0x6e, 0x6d, 0x93, 0x3d, 0xb7, 0xa6, 0xa9, 0xbc,
  0x11, 0x6a, 0x88, 0x3e, 0x90, 0xbe, 0x94, 0xbc, 0x0e, 0xa7, 0xab, 0xbe,
  0xea, 0xfb, 0x96, 0xbd, 0x5a, 0xe3, 0x1a, 0x3e, 0x2e, 0xa1, 0xf2, 0xbd,
  0x25, 0xa0, 0xd2, 0xbd, 0x3e, 0xb0, 0x10, 0x3e, 0x3b, 0xce, 0x79, 0x3e,
  0x56, 0xfe, 0x00, 0x3c, 0x0b, 0x33, 0x5f, 0xbe, 0x50, 0x97, 0x6a, 0x3e,
  0xa4, 0x68, 0x8f, 0xbd, 0x38, 0x6a, 0xa5, 0xbe, 0x2d, 0x67, 0xb2, 0x3e,
  0xe7, 0xd1, 0x6c, 0xbd, 0x54, 0x67, 0x67, 0x3e, 0xed, 0x2c, 0xa1, 0x3d,
  0xa6, 0xbd, 0x14, 0xbe, 0xd1, 0xb2, 0x8b, 0xbe, 0xc4, 0x81, 0x78, 0x3e,
  0x42, 0xdc, 0x9f, 0x3e, 0x63, 0x4e, 0xc7, 0xbe, 0x95, 0x9d, 0xb3, 0x3e,
  0xd7, 0x43, 0x89, 0x3e, 0x69, 0xd4, 0x81, 0xbe, 0x1f, 0x59, 0xc8, 0x3e,
  0xa1, 0x98, 0x94, 0xbe, 0x66, 0x2f, 0xb4, 0x3e, 0x37, 0x60, 0x92, 0x3f,
  0xee, 0x31, 0xe5, 0xbe, 0x98, 0x31, 0xda, 0x3e, 0x3f, 0xda, 0xf0, 0xbe,
  0x07, 0xe7, 0xe8, 0x3e, 0x80, 0x65, 0x9f, 0x3e, 0xce, 0x65, 0x13, 0x3f,
  0x84, 0x24, 0xbd, 0xbd, 0xbf, 0x28, 0x01, 0x3f, 0x2c, 0x0b, 0x01, 0x3f,
  0xb3, 0xef, 0xae, 0x3e, 0xfb, 0x9b, 0x75, 0xbf, 0x52, 0xdf, 0xae, 0xbe,
  0xa5, 0xdc, 0x89, 0x3f, 0xb0, 0x97, 0x0c, 0xbf, 0xf7, 0x6c, 0x0e, 0x3f,
  0x34, 0xf0, 0xf8, 0xbd, 0x74, 0x91, 0xa9, 0xbe, 0xaa, 0x43, 0xb7, 0xbe,
  0x80, 0xc7, 0xd3, 0xbb, 0x96, 0x7c, 0x81, 0xbe, 0x3f, 0x8c, 0x9a, 0xbe,
  0xa8, 0xa0, 0xe0, 0x3d, 0x88, 0x33, 0x36, 0x3e, 0x50, 0x9d, 0x86, 0xbe,
  0x84, 0xfc, 0xa7, 0x3e, 0xa0, 0x2c, 0x42, 0xbc, 0x7e, 0x8c, 0x5b, 0xbe,
  0x40, 0xdc, 0x36, 0x3e, 0x44, 0x0d, 0x56, 0x3e, 0xa4, 0xd4, 0x99, 0xbe,
  0x60, 0xf5, 0xde, 0xbd, 0xe4, 0xdc, 0x4c, 0x3e, 0xed, 0x44, 0x7a, 0xbe,
  0x42, 0xd7, 0xb6, 0x3e, 0x24, 0x22, 0xc0, 0xbe, 0xd8, 0xe3, 0x54, 0xbd,
  0x74, 0xb0, 0x25, 0xbe, 0x52, 0x0e, 0xc1, 0x3e, 0xc6, 0xcb, 0xb9, 0x3e,
  0xb9, 0x1a, 0x7d, 0xbe, 0x94, 0x3a, 0x8b, 0x3d, 0x7d, 0xc7, 0x17, 0xbe,
  0x60, 0x0e, 0xf7, 0x3c, 0xe7, 0x24, 0xad, 0xbe, 0xa4, 0x64, 0x24, 0x3e,
  0x30, 0x27, 0x9b, 0x3d, 0x18, 0x8d, 0xc9, 0xbd, 0x84, 0x37, 0x13, 0x3e,
  0x36, 0xfc, 0x79, 0xbe, 0xc0, 0xc1, 0xa2, 0xbd, 0x98, 0x61, 0x93, 0xbd,
  0x02, 0x8c, 0x27, 0xbe, 0xb4, 0x9a, 0xa7, 0xbe, 0x30, 0x61, 0xf6, 0x3d,
  0x7a, 0x4e, 0x16, 0xbe, 0xcd, 0xf0, 0x5e, 0xbf, 0xc8, 0xcf, 0xa1, 0x3e,
  0x91, 0x56, 0x09, 0xbf, 0xcf, 0xb2, 0x28, 0x3f, 0xaa, 0x63, 0x80, 0x3f,
  0x07, 0x6a, 0xce, 0xbd, 0xf3, 0xfb, 0x9d, 0x3c, 0x0d, 0x72, 0x38, 0xbf,
  0xce, 0x5d, 0xa4, 0xbb, 0x14, 0x41, 0x19, 0x3d, 0xd0, 0x5f, 0x20, 0x3f,
  0xed, 0xd4, 0xd5, 0x3d, 0xd7, 0x00, 0xeb, 0x3e, 0x35, 0xaf, 0x53, 0xbb,
  0x81, 0x6b, 0x39, 0x3e, 0x86, 0xe8, 0x86, 0xbf, 0x16, 0x7a, 0xaa, 0xbe,
  0x93, 0x60, 0x6b, 0x3f, 0xd4, 0x9d, 0x69, 0xbe, 0x86, 0x2a, 0x06, 0x3e,
  0x4f, 0x7a, 0x46, 0xbc, 0xe1, 0xd7, 0x5a, 0xbe, 0x26, 0xaa, 0xda, 0xbc,
  0x99, 0x6a, 0x18, 0x3e, 0xf3, 0xe4, 0x82, 0x3e, 0x94, 0x9c, 0x02, 0x3e,
  0x45, 0x59, 0x15, 0x3e, 0x85, 0x29, 0xc4, 0xbe, 0xa3, 0xae, 0x86, 0xbc,
  0x15, 0xed, 0xff, 0xbd, 0x98, 0x7b, 0x97, 0xbe, 0x64, 0x21, 0xce, 0x3d,
  0xc3, 0xdb, 0x9a, 0x3e, 0x2e, 0xe5, 0x64, 0xbe, 0xcf, 0xc7, 0x3a, 0xbe,
  0x3a, 0x0a, 0x5e, 0xbd, 0x60, 0x95, 0x90, 0xbe, 0x5a, 0x3e, 0x31, 0xbe,
  0x6d, 0x62, 0x89, 0x3e, 0x12, 0xca, 0x04, 0x3d, 0x9a, 0x23, 0x15, 0xbe,
  0x6b, 0xb5, 0x48, 0x3e, 0x5b, 0xe4, 0x0a, 0xbe, 0x46, 0x86, 0x51, 0x3c,
  0x44, 0x60, 0xe5, 0xbe, 0x7c, 0xda, 0x66, 0xbe, 0x51, 0x5e, 0x03, 0xbf,
  0x49, 0xfb, 0x03, 0xbe, 0x69, 0xb0, 0x56, 0xbe, 0x74, 0xfe, 0x76, 0xbe,
  0x73, 0x72, 0xae, 0xbe, 0x5f, 0xae, 0x9b, 0xbc, 0x41, 0xb5, 0xb4, 0x3e,
  0x52, 0xc7, 0x3a, 0x3e, 0x3a, 0xb8, 0x26, 0x3e, 0x56, 0x44, 0x03, 0x3e,
  0x4c, 0xa7, 0xe4, 0x3d, 0x05, 0x8b, 0x08, 0xbf, 0xac, 0x83, 0xb1, 0xbd,
  0xe2, 0x6b, 0xa4, 0xbe, 0xff, 0xea, 0x3f, 0xbc, 0x12, 0x55, 0xdd, 0xbd,
  0xf3, 0xc3, 0x77, 0xbe, 0x79, 0xde, 0xdb, 0xbd, 0x2c, 0x40, 0xd6, 0xbd,
  0x3c, 0x03, 0xab, 0x3e, 0x34, 0x35, 0x28, 0xbe, 0xa4, 0x4c, 0xb2, 0xbb,
  0x12, 0x5a, 0xa8, 0x3d, 0x67, 0x70, 0xa9, 0x3e, 0xe1, 0x58, 0x95, 0xbe,
  0x29, 0x6c, 0xdc, 0xbe, 0xd0, 0xd0, 0x7f, 0x3e, 0x21, 0x75, 0xe6, 0xbe,
  0xbe, 0x31, 0x6b, 0x3d, 0x7f, 0xf7, 0xcf, 0xbd, 0xf0, 0xf7, 0x60, 0x3e,
  0xaf, 0xef, 0x2a, 0xbe, 0xe3, 0xb0, 0xa3, 0x3e, 0x85, 0x12, 0xa7, 0x3d,
  0x9b, 0xec, 0x0a, 0xbf, 0x9c, 0x02, 0xd1, 0x3e, 0xc6, 0x96, 0x12, 0xbf,
  0x8f, 0x13, 0x0c, 0x3f, 0x82, 0x64, 0x2d, 0x3e, 0x5d, 0xc4, 0x91, 0xbe,
  0xe9, 0x28, 0x5c, 0x3e, 0x22, 0x88, 0xd3, 0xbb, 0x64, 0xee, 0x11, 0x3f,
  0xda, 0xc1, 0x06, 0x3f, 0x24, 0xd5, 0xbe, 0x3e, 0x57, 0xdd, 0x3f, 0xbe,
  0xdb, 0x5c, 0x56, 0xbe, 0x46, 0x58, 0x2c, 0x3f, 0x4b, 0x55, 0x3e, 0x3e,
  0x2e, 0x53, 0xd6, 0xbe, 0x54, 0x8b, 0xf0, 0xbd, 0x5c, 0xda, 0xcf, 0x3e,
  0xc8, 0xbf, 0x8e, 0xbe, 0x75, 0xa5, 0xfa, 0x3e, 0x88, 0xf3, 0xff, 0xff,
  0xda, 0xf8, 0xff, 0xff, 0x04, 0x00, 0x00, 0x00, 0x50, 0x00, 0x00, 0x00,
  0x2d, 0x45, 0x07, 0xbd, 0x24, 0x4a, 0x4c, 0x3b, 0x63, 0x8c, 0xd9, 0xbc,
  0x63, 0x1c, 0x82, 0xbc, 0xc8, 0x85, 0xcf, 0xbd, 0xf5, 0x93, 0x34, 0x40,
  0xd8, 0xd6, 0xe6, 0x3f, 0x35, 0x8e, 0x3e, 0x3e, 0xb9, 0x8e, 0x78, 0x3d,
  0x43, 0x4f, 0x8b, 0xbd, 0x7a, 0x1c, 0x01, 0xbd, 0xaa, 0x81, 0x1c, 0xbd,
  0xd0, 0x5c, 0xc1, 0x3f, 0x00, 0x00, 0x00, 0x00, 0x00, 0x00, 0x00, 0x00,
  0x85, 0xc4, 0xb2, 0x3f, 0xc5, 0x89, 0xaa, 0xbd, 0xf3, 0xce, 0x3b, 0xbe,
  0x79, 0xd9, 0xe0, 0x3b, 0x93, 0x98, 0x0f, 0x40, 0xe8, 0xf3, 0xff, 0xff,
  0x3a, 0xf9, 0xff, 0xff, 0x04, 0x00, 0x00, 0x00, 0x0c, 0x00, 0x00, 0x00,
  0xb4, 0x11, 0x48, 0xbf, 0xf0, 0x3e, 0x00, 0xc0, 0x25, 0xd6, 0x0e, 0xc0,
  0x04, 0xf4, 0xff, 0xff, 0x56, 0xf9, 0xff, 0xff, 0x04, 0x00, 0x00, 0x00,
  0x40, 0x06, 0x00, 0x00, 0x9f, 0xd6, 0x45, 0x3c, 0x8a, 0x7f, 0x62, 0xbd,
  0x77, 0xae, 0x31, 0xbd, 0x5e, 0x75, 0x7a, 0xbe, 0x52, 0x23, 0x20, 0xbe,
  0x73, 0x2b, 0x08, 0x39, 0x74, 0x4d, 0x9e, 0xbd, 0x6f, 0x3e, 0x49, 0x3d,
  0x3e, 0xd9, 0x93, 0xbc, 0x0e, 0x46, 0x64, 0x3f, 0xa0, 0x5a, 0xe8, 0x3d,
  0x96, 0x7e, 0x48, 0x3d, 0xb6, 0x7b, 0x02, 0x3e, 0x67, 0xce, 0x5e, 0x3c,
  0xfc, 0x72, 0xbf, 0x3e, 0x8a, 0xcf, 0x91, 0x3c, 0x5c, 0x3c, 0x0a, 0x3d,
  0xcc, 0x8f, 0x34, 0x3c, 0x7f, 0x95, 0xc1, 0x3c, 0xdc, 0x89, 0x97, 0xbe,
  0xe1, 0xd4, 0x9c, 0xbe, 0x97, 0x6c, 0x4f, 0xbe, 0x8e, 0x05, 0x16, 0x3e,
  0x95, 0xf2, 0x9b, 0x3e, 0xb1, 0xd8, 0x33, 0x3f, 0x0f, 0x33, 0x05, 0x3e,
  0x86, 0x24, 0x47, 0x3e, 0x12, 0x8c, 0x94, 0x3d, 0x2e, 0x16, 0x84, 0x3e,
  0x24, 0x37, 0xff, 0xbd, 0x9a, 0x40, 0x6b, 0xbe, 0x0b, 0x1a, 0x6c, 0xbe,
  0x6a, 0xd1, 0x9f, 0x3e, 0xa7, 0x69, 0x14, 0x3e, 0xb2, 0xf0, 0xf7, 0x3e,
  0x50, 0x4e, 0x03, 0xbd, 0x09, 0x98, 0xaf, 0x3c, 0x44, 0x1a, 0xa2, 0x3e,
  0x12, 0xc6, 0x3e, 0xbe, 0xd4, 0x72, 0x6a, 0x3d, 0x4f, 0x7f, 0x92, 0x3d,
  0x7a, 0xd1, 0x0e, 0xbf, 0x69, 0x66, 0x9e, 0x3b, 0x12, 0x31, 0xd6, 0x3e,
  0x50, 0x2d, 0x26, 0x3f, 0x15, 0x9d, 0x44, 0xbc, 0x98, 0xdd, 0x9b, 0xbe,
  0xbe, 0xbe, 0xf5, 0xbc, 0x14, 0xcd, 0x6d, 0x3d, 0x85, 0x6f, 0x1d, 0x3f,
  0x8b, 0xc2, 0xf1, 0xbd, 0x80, 0x58, 0x8b, 0x3d, 0x9b, 0x06, 0xc1, 0xbd,
  0x23, 0x06, 0x73, 0xbc, 0xba, 0xa0, 0xad, 0x3e, 0xfc, 0x21, 0xd4, 0xb8,
  0x82, 0x30, 0xb3, 0xbd, 0x1c, 0x60, 0x0d, 0xbd, 0x15, 0x8a, 0xd5, 0xbc,
  0x1b, 0x07, 0x29, 0xbe, 0xf8, 0x28, 0x5b, 0x3e, 0x63, 0xbb, 0x0e, 0x3e,
  0x45, 0x6e, 0x8e, 0xbb, 0xeb, 0x39, 0xdc, 0xbe, 0x18, 0x0e, 0xe6, 0x3e,
  0xb3, 0xf0, 0xf7, 0x3d, 0xa3, 0x0a, 0x19, 0x3e, 0x76, 0x89, 0x78, 0x3e,
  0x22, 0xf3, 0x47, 0xbe, 0xfa, 0x7d, 0x31, 0xbf, 0x24, 0x73, 0xf1, 0x3d,
  0x7b, 0xd6, 0xa4, 0x3d, 0x9e, 0x93, 0x1f, 0x3e, 0xcc, 0xee, 0xc5, 0x3d,
  0xc1, 0x9c, 0x2d, 0xbf, 0x32, 0xc1, 0x7c, 0xba, 0xf5, 0xa5, 0x01, 0xbb,
  0xac, 0x48, 0x48, 0x3d, 0x80, 0x66, 0x06, 0xbc, 0xa8, 0x74, 0xd3, 0xbe,
  0x66, 0x1a, 0x8c, 0xbb, 0x02, 0x65, 0x34, 0x3f, 0xcd, 0x76, 0x5b, 0x3d,
  0x8d, 0xff, 0x08, 0xbf, 0x00, 0x44, 0x83, 0x3d, 0x0e, 0xf7, 0xfe, 0x3c,
  0x00, 0xad, 0x58, 0x3e, 0x42, 0xd1, 0x69, 0xbb, 0xff, 0xc2, 0x22, 0x3d,
  0x4c, 0x62, 0x4f, 0xbf, 0x95, 0x45, 0x7d, 0x3d, 0x77, 0x5b, 0x0f, 0x3c,
  0x0e, 0xd1, 0x2b, 0x3d, 0x9a, 0xae, 0x21, 0x3d, 0xdf, 0x4f, 0x83, 0xbe,
  0x3e, 0x25, 0x2e, 0x3a, 0x8f, 0xa5, 0x21, 0x3d, 0x33, 0xa2, 0x25, 0xbc,
  0xf0, 0x71, 0xbf, 0x3b, 0xcf, 0xbe, 0xf7, 0xbe, 0x46, 0x34, 0xdb, 0xbe,
  0x96, 0x4f, 0xb9, 0xbe, 0xdb, 0xa2, 0x3a, 0xbe, 0xc4, 0xc0, 0xac, 0x3e,
  0x10, 0x94, 0x86, 0x3e, 0xcf, 0xcb, 0x3e, 0xbe, 0x98, 0x2b, 0x2a, 0x3e,
  0x36, 0xdd, 0xdf, 0xbd, 0xa6, 0x64, 0x82, 0xbe, 0xf2, 0x71, 0xc2, 0x3e,
  0xcf, 0x6a, 0x5d, 0x3e, 0xbd, 0x5b, 0xcc, 0xbe, 0x0d, 0x1f, 0x19, 0xbe,
  0xd3, 0x0a, 0xcc, 0x3d, 0x07, 0xf6, 0xad, 0x3c, 0xb4, 0xc4, 0x99, 0xbe,
  0x58, 0x07, 0x15, 0xbe, 0x80, 0x6b, 0xd0, 0xbe, 0x6e, 0xbf, 0xb0, 0xbe,
  0x99, 0x5c, 0xdd, 0xbc, 0x72, 0x8f, 0xbc, 0x3e, 0x02, 0xa3, 0x00, 0x3e,
  0x88, 0xae, 0x0a, 0xbe, 0x08, 0xda, 0x9d, 0x3d, 0xe9, 0x16, 0x29, 0x3f,
  0x11, 0xdb, 0x3f, 0xbe, 0xc1, 0xb6, 0x2a, 0xbd, 0xeb, 0x7f, 0x86, 0x3d,
  0xfe, 0xf8, 0xe8, 0x3c, 0x82, 0xbc, 0x06, 0xbe, 0x6e, 0xfc, 0x0e, 0xbd,
  0x99, 0xeb, 0x33, 0xbe, 0x53, 0x18, 0x9f, 0x3e, 0x0e, 0x10, 0xa4, 0xbd,
  0x38, 0x9f, 0x0b, 0x3f, 0x1f, 0xb0, 0xab, 0xbe, 0x6f, 0x74, 0x12, 0xbe,
  0x24, 0xdb, 0x17, 0x3e, 0x74, 0x22, 0x16, 0x3e, 0x38, 0xfd, 0x2b, 0x3d,
  0x42, 0x66, 0x89, 0x3c, 0x90, 0xd9, 0xe0, 0x3c, 0x5c, 0x24, 0x84, 0x3e,
  0x85, 0x88, 0x08, 0xbd, 0xc5, 0x21, 0x66, 0x3d, 0x85, 0x81, 0x45, 0x3d,
  0x0e, 0x5b, 0x35, 0x3d, 0x94, 0x31, 0xdb, 0xbc, 0x05, 0x95, 0xf9, 0x3d,
  0xb4, 0x44, 0x65, 0x3f, 0x4e, 0x3a, 0x0a, 0xbc, 0x1b, 0x01, 0x2b, 0xbe,
  0x3c, 0x86, 0x7f, 0xbb, 0x27, 0xa2, 0x4a, 0xbd, 0x52, 0xea, 0x04, 0x3f,
  0x88, 0x53, 0x9a, 0x3d, 0xb2, 0xa6, 0x3b, 0xbc, 0x26, 0x3b, 0xe3, 0x3d,
  0xe8, 0x59, 0x5a, 0xbc, 0x74, 0xf4, 0x24, 0x3e, 0x62, 0xaa, 0x4a, 0xbd,
  0x69, 0xf7, 0x91, 0x3e, 0xa0, 0xac, 0x4c, 0x3e, 0x0a, 0x7e, 0xc0, 0xbd,
  0x31, 0x9e, 0x96, 0x3f, 0x70, 0x99, 0x05, 0xbe, 0xce, 0xea, 0x44, 0x3d,
  0x05, 0xcc, 0x2d, 0x3e, 0x8a, 0x40, 0x04, 0x3e, 0x38, 0x16, 0x99, 0xbe,
  0x62, 0x9a, 0x4b, 0x3e, 0x3c, 0xe1, 0xd2, 0x3d, 0x56, 0x84, 0xb7, 0xbc,
  0x06, 0x08, 0x9f, 0x3e, 0x3c, 0xed, 0xe7, 0x3d, 0x82, 0x84, 0x4d, 0x3e,
  0x16, 0x97, 0x2b, 0x3e, 0x63, 0xf6, 0x44, 0x3c, 0xb5, 0xbc, 0xc1, 0xbc,
  0x04, 0x9b, 0xc0, 0x3e, 0x73, 0xef, 0xc8, 0x3e, 0x52, 0x1a, 0x6e, 0xbe,
  0x7a, 0xb2, 0xac, 0x3e, 0xaf, 0x38, 0x19, 0x3c, 0xcf, 0x7e, 0xdf, 0xbd,
  0x55, 0xff, 0x94, 0x3e, 0xe5, 0x3f, 0x1d, 0xbf, 0xe8, 0xee, 0x8f, 0x3e,
  0x7f, 0x4a, 0x1c, 0x3e, 0xa4, 0x50, 0x89, 0xbe, 0xba, 0x78, 0x77, 0xbe,
  0xa8, 0xf5, 0x9e, 0xbe, 0x84, 0x2a, 0x7f, 0xbd, 0x19, 0xcf, 0x1d, 0x3e,
  0x8d, 0x6a, 0xd3, 0xbd, 0x12, 0x5d, 0x25, 0xbe, 0x00, 0x60, 0x01, 0xbe,
  0xe6, 0x6c, 0x81, 0xbd, 0x65, 0x18, 0x94, 0x3b, 0x97, 0x90, 0x7d, 0x3c,
  0x94, 0x12, 0x21, 0xbd, 0xfc, 0x18, 0xb4, 0xbd, 0x0e, 0x5b, 0x60, 0x3e,
  0x04, 0xec, 0x7f, 0x3d, 0x24, 0x1b, 0x80, 0x3f, 0x98, 0x5d, 0x19, 0xbe,
  0xfa, 0xff, 0xd4, 0xbe, 0x27, 0xd7, 0xbc, 0x3d, 0x2f, 0x35, 0x5d, 0x3e,
  0x26, 0x64, 0x0a, 0xbe, 0x57, 0xc2, 0x14, 0x3e, 0xd5, 0xfa, 0x73, 0x3e,
  0x2b, 0xfa, 0xd4, 0xbd, 0x29, 0x2e, 0xb6, 0xbe, 0xee, 0x1e, 0xb6, 0x3e,
  0xec, 0xd7, 0x18, 0x3e, 0x45, 0xe7, 0xf2, 0xbd, 0x54, 0x1d, 0xae, 0xbd,
  0x0b, 0x88, 0xa6, 0xbd, 0xd1, 0x72, 0xd8, 0x3e, 0xe4, 0xb5, 0xc3, 0xbe,
  0x32, 0x92, 0x85, 0xbd, 0xfb, 0xc2, 0x80, 0xbe, 0xf3, 0xac, 0x98, 0xbe,
  0x44, 0xde, 0x42, 0x3e, 0xbb, 0xaf, 0x57, 0x3e, 0xbd, 0xda, 0x10, 0xbd,
  0xc1, 0x35, 0xe9, 0xbe, 0xf1, 0xc4, 0x1d, 0x3e, 0x91, 0xd5, 0x8f, 0xbe,
  0x13, 0x85, 0x20, 0x3e, 0xa3, 0x1b, 0x25, 0x3e, 0x99, 0x65, 0xdc, 0xbe,
  0x66, 0x59, 0x20, 0x3e, 0xa2, 0xc5, 0xbd, 0x3c, 0x40, 0x93, 0x13, 0x3e,
  0x5f, 0x44, 0x0f, 0xbf, 0x76, 0x75, 0x2a, 0xbe, 0xd1, 0x88, 0xf4, 0xbe,
  0xa1, 0xcd, 0xda, 0xbe, 0x2e, 0xde, 0x22, 0x3e, 0xb1, 0xdc, 0x01, 0xbf,
  0x2b, 0x5c, 0xa8, 0xbd, 0xe2, 0x4a, 0xba, 0x3e, 0xb6, 0xc2, 0x28, 0x3e,
  0x7f, 0x1c, 0xbd, 0x3c, 0xe7, 0xab, 0xb1, 0xbe, 0x27, 0x2a, 0xb5, 0xbe,
  0xcd, 0xe3, 0x06, 0xbe, 0x7a, 0x58, 0xac, 0xbe, 0x01, 0xa6, 0x91, 0x3e,
  0x54, 0xae, 0xbd, 0xbd, 0x92, 0x88, 0xee, 0xbe, 0xeb, 0x4b, 0x01, 0xbe,
  0xfd, 0x13, 0xa6, 0x3e, 0x09, 0xc5, 0x23, 0x3d, 0xe6, 0xd9, 0x1a, 0xbe,
  0x67, 0xc8, 0x1b, 0xbf, 0xd0, 0x6d, 0xed, 0xbd, 0x48, 0x9b, 0x7a, 0x3e,
  0xf5, 0x57, 0x77, 0xbe, 0xfa, 0xa9, 0xba, 0xbe, 0xd1, 0xe1, 0xc9, 0xbd,
  0xb9, 0x1d, 0x76, 0xbe, 0xf0, 0x84, 0x21, 0x3f, 0x18, 0x2c, 0xca, 0x3e,
  0x7a, 0x23, 0x74, 0x3e, 0x27, 0xa7, 0x39, 0x3e, 0x9c, 0x64, 0x7a, 0xbe,
  0xbc, 0xf1, 0x0d, 0xbf, 0x79, 0x62, 0x01, 0x3e, 0xf7, 0xb9, 0x58, 0xbd,
  0xe2, 0x65, 0x63, 0x3e, 0xc6, 0xc9, 0x03, 0xbe, 0x74, 0x60, 0xb5, 0x3e,
  0xaf, 0x9c, 0x34, 0x3e, 0xca, 0x8f, 0x89, 0x3e, 0x77, 0x6a, 0xad, 0x3e,
  0x38, 0xf0, 0x7a, 0x3e, 0x89, 0xee, 0xd3, 0x3e, 0x4a, 0x73, 0xcc, 0x3e,
  0x19, 0x2d, 0xb4, 0xbe, 0xfb, 0x06, 0xe6, 0xbe, 0x57, 0xc9, 0x8f, 0xbe,
  0xa9, 0xa0, 0x4f, 0x3f, 0x50, 0xf7, 0x88, 0x3e, 0x8c, 0x32, 0x35, 0xbe,
  0x00, 0xbd, 0x2a, 0xbe, 0x4b, 0x69, 0x45, 0x3e, 0x9d, 0xcf, 0xd5, 0xbe,
  0x56, 0x1a, 0x86, 0x3e, 0x2d, 0x07, 0xb8, 0x3e, 0x64, 0x75, 0x73, 0x3c,
  0x25, 0xf1, 0xc0, 0x3d, 0xc2, 0x1c, 0x69, 0x3e, 0x1d, 0x08, 0x1b, 0xbd,
  0x2e, 0x2d, 0xc4, 0x3d, 0x22, 0xf9, 0x65, 0xbe, 0x4d, 0x60, 0x93, 0x3e,
  0xd5, 0x6f, 0x00, 0x3f, 0xa1, 0xf6, 0x2e, 0x3e, 0xf5, 0x36, 0xa3, 0x3e,
  0x28, 0xab, 0x48, 0x3c, 0x40, 0x25, 0x64, 0xbe, 0xc9, 0x4e, 0xa8, 0xbf,
  0x1e, 0xb0, 0xe4, 0x3d, 0xc0, 0xd0, 0x33, 0x3e, 0x0a, 0x0c, 0x1b, 0x3e,
  0xe3, 0x03, 0xa0, 0xbc, 0x63, 0xc3, 0x3a, 0x3d, 0xc7, 0x37, 0x10, 0x3e,
  0x66, 0x20, 0xd4, 0x3d, 0x16, 0x61, 0x2a, 0x3e, 0xf8, 0x40, 0x98, 0x3d,
  0xa0, 0xf5, 0x6f, 0x3d, 0x8f, 0xba, 0x05, 0xbb, 0x7b, 0xd7, 0x27, 0xbd,
  0x3d, 0x75, 0x39, 0x3c, 0xe0, 0xed, 0xa9, 0xbc, 0x36, 0xa7, 0x3a, 0xbd,
  0x00, 0x99, 0x47, 0xbb, 0x54, 0x14, 0xc4, 0xbd, 0x68, 0x03, 0x3b, 0x3d,
  0xfd, 0xc0, 0xa5, 0xbe, 0x04, 0xeb, 0x49, 0xbe, 0x55, 0x57, 0x5a, 0xbe,
  0x00, 0xb4, 0x7b, 0x3c, 0x7d, 0xa8, 0xb0, 0xbe, 0xce, 0xee, 0x84, 0x3e,
  0xc0, 0x66, 0xcf, 0xbc, 0x70, 0xc4, 0x1e, 0x3e, 0xfa, 0x38, 0xa0, 0xbe,
  0x14, 0x69, 0xb2, 0xbe, 0x60, 0x91, 0xa7, 0x3c, 0x90, 0xdb, 0x15, 0xbd,
  0x58, 0xd2, 0x0f, 0x3e, 0xc8, 0x43, 0x94, 0xbe, 0x27, 0xaf, 0xa9, 0xbe,
  0x6e, 0xb7, 0x9d, 0xbe, 0xdc, 0x37, 0xb5, 0xbd, 0xe1, 0x78, 0x80, 0x3e,
  0x8e, 0xe5, 0x3f, 0xbd, 0xd2, 0x05, 0x8f, 0x3e, 0x08, 0x67, 0xbd, 0x3e,
  0x0d, 0x77, 0x6a, 0x3f, 0x36, 0x8a, 0x80, 0x3d, 0xf5, 0xd1, 0xb9, 0x3d,
  0x9e, 0x63, 0x02, 0xbe, 0xf1, 0xd4, 0x27, 0xbe, 0xa5, 0x19, 0x0e, 0xbf,
  0x72, 0x18, 0x1c, 0xbe, 0x7f, 0x3d, 0x9a, 0xbe, 0x60, 0x46, 0x9d, 0xbd,
  0xa2, 0xff, 0xb1, 0x3c, 0x12, 0x41, 0xa0, 0xbd, 0x21, 0x0e, 0xb4, 0xbd,
  0x77, 0x34, 0x0c, 0x3c, 0x97, 0xf6, 0x9a, 0xbd, 0xfd, 0xf6, 0x01, 0xbe,
  0x38, 0xbe, 0x04, 0x3d, 0xef, 0x22, 0x57, 0xbd, 0x7d, 0x66, 0x63, 0xbf,
  0x6c, 0x9c, 0xab, 0xbd, 0x70, 0x7e, 0x99, 0x3e, 0x53, 0xd7, 0x52, 0x3f,
  0x2d, 0x9a, 0x98, 0xbd, 0x8c, 0xbb, 0xc2, 0x3d, 0xa3, 0x6e, 0x0d, 0xbe,
  0x80, 0xbd, 0x6d, 0x3d, 0x4b, 0x0f, 0x98, 0x3e, 0x09, 0x7e, 0x54, 0x3c,
  0x05, 0xb2, 0x06, 0xbd, 0x86, 0x10, 0xf6, 0x3c, 0x2e, 0xb8, 0x81, 0xbd,
  0x1d, 0xe8, 0x7f, 0xbe, 0x57, 0x63, 0xb7, 0x3c, 0x74, 0xf6, 0x29, 0x3d,
  0x88, 0xf2, 0xa7, 0xbb, 0x52, 0x65, 0x8c, 0xbd, 0x26, 0x23, 0xae, 0x3e,
  0xb6, 0xb8, 0xbd, 0xbc, 0x89, 0x91, 0x2b, 0x3d, 0x58, 0x51, 0x82, 0x3d,
  0xff, 0x8a, 0xcc, 0x3d, 0xba, 0x09, 0x33, 0x3f, 0x9a, 0x81, 0xf8, 0xbd,
  0x86, 0xb3, 0x91, 0x3d, 0xbf, 0xc0, 0x7b, 0xbc, 0xf0, 0xdf, 0xf7, 0x3d,
  0x69, 0x75, 0xca, 0xbe, 0x11, 0xc3, 0x76, 0x3d, 0x8e, 0x3a, 0x6a, 0x3e,
  0x83, 0xf6, 0x4c, 0xbe, 0x26, 0xec, 0xb4, 0x3d, 0xe4, 0x98, 0x2c, 0x39,
  0x58, 0x49, 0x12, 0x3e, 0x93, 0x10, 0xbd, 0xbe, 0xb7, 0xb8, 0x61, 0xbd,
  0xa7, 0xb2, 0xc0, 0x3b, 0x3b, 0x9b, 0x28, 0x3e, 0xa2, 0xff, 0xff, 0xff,
  0x04, 0x00, 0x00, 0x00, 0x50, 0x00, 0x00, 0x00, 0x40, 0xb2, 0xd1, 0xbf,
  0x3c, 0x45, 0x1e, 0x40, 0x42, 0xb1, 0xba, 0xbf, 0x83, 0x20, 0x91, 0x3f,
  0x98, 0x0c, 0x67, 0x3f, 0x3d, 0x5e, 0xa4, 0xbc, 0x7f, 0x20, 0x01, 0x40,
  0x79, 0xc5, 0xe7, 0xbf, 0x19, 0x72, 0x25, 0x40, 0x98, 0x29, 0x93, 0x3f,
  0xe2, 0x96, 0x02, 0x40, 0x4e, 0xd6, 0x3d, 0xbe, 0xea, 0x3f, 0xf0, 0x3d,
  0x7e, 0xda, 0x25, 0x40, 0x6d, 0xd1, 0x1c, 0x40, 0x8f, 0xdd, 0x8b, 0xbf,
  0x00, 0x00, 0x00, 0x00, 0x66, 0xaa, 0xb4, 0x3f, 0xb7, 0xc4, 0x15, 0xbf,
  0x7c, 0x13, 0x11, 0x40, 0x00, 0x00, 0x06, 0x00, 0x08, 0x00, 0x04, 0x00,
  0x06, 0x00, 0x00, 0x00, 0x04, 0x00, 0x00, 0x00, 0xf0, 0x00, 0x00, 0x00,
  0x7c, 0xaa, 0x72, 0x3f, 0x64, 0x91, 0xb6, 0xbe, 0x43, 0x40, 0x71, 0x3e,
  0xba, 0x41, 0xf3, 0xbe, 0x7a, 0xb7, 0x6c, 0xbd, 0xc2, 0x0b, 0x8a, 0xbe,
  0x1a, 0x15, 0x0f, 0xbf, 0xba, 0x16, 0x2a, 0x3e, 0xdc, 0x87, 0x0f, 0x3e,
  0x97, 0x0f, 0x9a, 0x3e, 0x4e, 0xfa, 0x43, 0xbe, 0xed, 0xfa, 0xd8, 0xbe,
  0x77, 0x2a, 0x2c, 0xbf, 0x48, 0x60, 0x1e, 0xbd, 0xd0, 0x3d, 0xed, 0xbd,
  0x0f, 0xa1, 0xb5, 0xbf, 0xfe, 0x9d, 0xa6, 0x3e, 0x28, 0x4b, 0x77, 0x3e,
  0x45, 0x58, 0xf7, 0x3d, 0x12, 0xf7, 0x88, 0xbe, 0x8d, 0xec, 0xa7, 0xbc,
  0x56, 0x23, 0x8a, 0xbe, 0x00, 0x23, 0xd6, 0xbe, 0x5c, 0x44, 0xaf, 0xbe,
  0xdf, 0xea, 0x1a, 0x3f, 0x9a, 0x63, 0x4a, 0xbf, 0x0a, 0x90, 0xce, 0xbe,
  0x62, 0xca, 0xc3, 0xbe, 0x0f, 0xdc, 0xd8, 0x3e, 0x4e, 0x4c, 0xdf, 0x3a,
  0x2e, 0xb6, 0xf8, 0xbe, 0xc8, 0xff, 0x6b, 0xbe, 0x5b, 0x87, 0x10, 0xbe,
  0x44, 0xdd, 0x97, 0x3e, 0xf4, 0x43, 0x44, 0x3e, 0x86, 0xf7, 0x55, 0xbf,
  0x03, 0xc4, 0x80, 0x3e, 0x08, 0xb7, 0x88, 0xbe, 0xac, 0x19, 0x82, 0x3e,
  0xef, 0x8f, 0x10, 0xbf, 0x1e, 0xac, 0x88, 0x3e, 0xe9, 0x48, 0x88, 0xbe,
  0x84, 0x67, 0xb5, 0xbe, 0x74, 0x92, 0xd7, 0xbd, 0xe1, 0x02, 0xe6, 0x3e,
  0x97, 0xbb, 0x6f, 0xbf, 0xd8, 0xf4, 0x88, 0xbe, 0x66, 0xf6, 0x0b, 0xbf,
  0xa9, 0xfd, 0xb7, 0x3e, 0x93, 0xe7, 0x4b, 0x3e, 0xfe, 0xbb, 0xf9, 0x3d,
  0xfc, 0xd7, 0xce, 0x3e, 0xcd, 0xa3, 0xe6, 0xbe, 0x00, 0x91, 0x9a, 0x3d,
  0xc0, 0x67, 0xde, 0x3c, 0x37, 0x91, 0x3e, 0xbf, 0xa8, 0xb3, 0xa6, 0x3e,
  0xe2, 0x2e, 0xe1, 0x3e, 0xf1, 0xc2, 0x35, 0xbe, 0x90, 0xed, 0x83, 0xbe,
  0xb4, 0xfb, 0xff, 0xff, 0x0f, 0x00, 0x00, 0x00, 0x54, 0x4f, 0x43, 0x4f,
  0x20, 0x43, 0x6f, 0x6e, 0x76, 0x65, 0x72, 0x74, 0x65, 0x64, 0x2e, 0x00,
  0x01, 0x00, 0x00, 0x00, 0x10, 0x00, 0x00, 0x00, 0x0c, 0x00, 0x14, 0x00,
  0x04, 0x00, 0x08, 0x00, 0x0c, 0x00, 0x10, 0x00, 0x0c, 0x00, 0x00, 0x00,
  0xf0, 0x00, 0x00, 0x00, 0xe4, 0x00, 0x00, 0x00, 0xd8, 0x00, 0x00, 0x00,
  0x04, 0x00, 0x00, 0x00, 0x03, 0x00, 0x00, 0x00, 0x90, 0x00, 0x00, 0x00,
  0x48, 0x00, 0x00, 0x00, 0x04, 0x00, 0x00, 0x00, 0xce, 0xff, 0xff, 0xff,
  0x00, 0x00, 0x00, 0x08, 0x18, 0x00, 0x00, 0x00, 0x0c, 0x00, 0x00, 0x00,
  0x04, 0x00, 0x00, 0x00, 0x18, 0xfc, 0xff, 0xff, 0x01, 0x00, 0x00, 0x00,
  0x07, 0x00, 0x00, 0x00, 0x03, 0x00, 0x00, 0x00, 0x02, 0x00, 0x00, 0x00,
  0x09, 0x00, 0x00, 0x00, 0x08, 0x00, 0x00, 0x00, 0x00, 0x00, 0x0e, 0x00,
  0x14, 0x00, 0x00, 0x00, 0x08, 0x00, 0x0c, 0x00, 0x07, 0x00, 0x10, 0x00,
  0x0e, 0x00, 0x00, 0x00, 0x00, 0x00, 0x00, 0x08, 0x1c, 0x00, 0x00, 0x00,
  0x10, 0x00, 0x00, 0x00, 0x04, 0x00, 0x00, 0x00, 0xba, 0xff, 0xff, 0xff,
  0x00, 0x00, 0x00, 0x01, 0x01, 0x00, 0x00, 0x00, 0x02, 0x00, 0x00, 0x00,
  0x03, 0x00, 0x00, 0x00, 0x01, 0x00, 0x00, 0x00, 0x06, 0x00, 0x00, 0x00,
  0x05, 0x00, 0x00, 0x00, 0x00, 0x00, 0x0e, 0x00, 0x16, 0x00, 0x00, 0x00,
  0x08, 0x00, 0x0c, 0x00, 0x07, 0x00, 0x10, 0x00, 0x0e, 0x00, 0x00, 0x00,
  0x00, 0x00, 0x00, 0x08, 0x24, 0x00, 0x00, 0x00, 0x18, 0x00, 0x00, 0x00,
  0x0c, 0x00, 0x00, 0x00, 0x00, 0x00, 0x06, 0x00, 0x08, 0x00, 0x07, 0x00,
  0x06, 0x00, 0x00, 0x00, 0x00, 0x00, 0x00, 0x01, 0x01, 0x00, 0x00, 0x00,
  0x01, 0x00, 0x00, 0x00, 0x03, 0x00, 0x00, 0x00, 0x00, 0x00, 0x00, 0x00,
  0x04, 0x00, 0x00, 0x00, 0x03, 0x00, 0x00, 0x00, 0x01, 0x00, 0x00, 0x00,
  0x07, 0x00, 0x00, 0x00, 0x01, 0x00, 0x00, 0x00, 0x00, 0x00, 0x00, 0x00,
  0x0a, 0x00, 0x00, 0x00, 0x70, 0x03, 0x00, 0x00, 0x10, 0x03, 0x00, 0x00,
  0xc4, 0x02, 0x00, 0x00, 0x64, 0x02, 0x00, 0x00, 0xfc, 0x01, 0x00, 0x00,
  0x9c, 0x01, 0x00, 0x00, 0x30, 0x01, 0x00, 0x00, 0xd0, 0x00, 0x00, 0x00,
  0x70, 0x00, 0x00, 0x00, 0x04, 0x00, 0x00, 0x00, 0xc6, 0xfc, 0xff, 0xff,
  0x58, 0x00, 0x00, 0x00, 0x01, 0x00, 0x00, 0x00, 0x0c, 0x00, 0x00, 0x00,
  0x04, 0x00, 0x00, 0x00, 0x14, 0xfd, 0xff, 0xff, 0x3c, 0x00, 0x00, 0x00,
  0x64, 0x65, 0x65, 0x70, 0x71, 0x2f, 0x6d, 0x6f, 0x64, 0x65, 0x6c, 0x2f,
  0x61, 0x63, 0x74, 0x69, 0x6f, 0x6e, 0x5f, 0x76, 0x61, 0x6c, 0x75, 0x65,
  0x2f, 0x66, 0x75, 0x6c, 0x6c, 0x79, 0x5f, 0x63, 0x6f, 0x6e, 0x6e, 0x65,
  0x63, 0x74, 0x65, 0x64, 0x5f, 0x32, 0x2f, 0x77, 0x65, 0x69, 0x67, 0x68,
  0x74, 0x73, 0x2f, 0x74, 0x72, 0x61, 0x6e, 0x73, 0x70, 0x6f, 0x73, 0x65,
  0x00, 0x00, 0x00, 0x00, 0x02, 0x00, 0x00, 0x00, 0x03, 0x00, 0x00, 0x00,
  0x14, 0x00, 0x00, 0x00, 0x2e, 0xfd, 0xff, 0xff, 0x50, 0x00, 0x00, 0x00,
  0x05, 0x00, 0x00, 0x00, 0x0c, 0x00, 0x00, 0x00, 0x04, 0x00, 0x00, 0x00,
  0x7c, 0xfd, 0xff, 0xff, 0x36, 0x00, 0x00, 0x00, 0x64, 0x65, 0x65, 0x70,
  0x71, 0x2f, 0x6d, 0x6f, 0x64, 0x65, 0x6c, 0x2f, 0x61, 0x63, 0x74, 0x69,
  0x6f, 0x6e, 0x5f, 0x76, 0x61, 0x6c, 0x75, 0x65, 0x2f, 0x66, 0x75, 0x6c,
  0x6c, 0x79, 0x5f, 0x63, 0x6f, 0x6e, 0x6e, 0x65, 0x63, 0x74, 0x65, 0x64,
  0x5f, 0x32, 0x2f, 0x4d, 0x61, 0x74, 0x4d, 0x75, 0x6c, 0x5f, 0x62, 0x69,
  0x61, 0x73, 0x00, 0x00, 0x01, 0x00, 0x00, 0x00, 0x03, 0x00, 0x00, 0x00,
  0x8a, 0xfd, 0xff, 0xff, 0x4c, 0x00, 0x00, 0x00, 0x04, 0x00, 0x00, 0x00,
  0x0c, 0x00, 0x00, 0x00, 0x04, 0x00, 0x00, 0x00, 0xd8, 0xfd, 0xff, 0xff,
  0x32, 0x00, 0x00, 0x00, 0x64, 0x65, 0x65, 0x70, 0x71, 0x2f, 0x6d, 0x6f,
  0x64, 0x65, 0x6c, 0x2f, 0x61, 0x63, 0x74, 0x69, 0x6f, 0x6e, 0x5f, 0x76,
  0x61, 0x6c, 0x75, 0x65, 0x2f, 0x66, 0x75, 0x6c, 0x6c, 0x79, 0x5f, 0x63,
  0x6f, 0x6e, 0x6e, 0x65, 0x63, 0x74, 0x65, 0x64, 0x5f, 0x32, 0x2f, 0x42,
  0x69, 0x61, 0x73, 0x41, 0x64, 0x64, 0x00, 0x00, 0x02, 0x00, 0x00, 0x00,
  0x01, 0x00, 0x00, 0x00, 0x03, 0x00, 0x00, 0x00, 0xe6, 0xfd, 0xff, 0xff,
  0x58, 0x00, 0x00, 0x00, 0x09, 0x00, 0x00, 0x00, 0x0c, 0x00, 0x00, 0x00,
  0x04, 0x00, 0x00, 0x00, 0x34, 0xfe, 0xff, 0xff, 0x3c, 0x00, 0x00, 0x00,
  0x64, 0x65, 0x65, 0x70, 0x71, 0x2f, 0x6d, 0x6f, 0x64, 0x65, 0x6c, 0x2f,
  0x61, 0x63, 0x74, 0x69, 0x6f, 0x6e, 0x5f, 0x76, 0x61, 0x6c, 0x75, 0x65,
  0x2f, 0x66, 0x75, 0x6c, 0x6c, 0x79, 0x5f, 0x63, 0x6f, 0x6e, 0x6e, 0x65,
  0x63, 0x74, 0x65, 0x64, 0x5f, 0x31, 0x2f, 0x77, 0x65, 0x69, 0x67, 0x68,
  0x74, 0x73, 0x2f, 0x74, 0x72, 0x61, 0x6e, 0x73, 0x70, 0x6f, 0x73, 0x65,
  0x00, 0x00, 0x00, 0x00, 0x02, 0x00, 0x00, 0x00, 0x14, 0x00, 0x00, 0x00,
  0x14, 0x00, 0x00, 0x00, 0x4e, 0xfe, 0xff, 0xff, 0x50, 0x00, 0x00, 0x00,
  0x07, 0x00, 0x00, 0x00, 0x0c, 0x00, 0x00, 0x00, 0x04, 0x00, 0x00, 0x00,
  0x9c, 0xfe, 0xff, 0xff, 0x36, 0x00, 0x00, 0x00, 0x64, 0x65, 0x65, 0x70,
  0x71, 0x2f, 0x6d, 0x6f, 0x64, 0x65, 0x6c, 0x2f, 0x61, 0x63, 0x74, 0x69,
  0x6f, 0x6e, 0x5f, 0x76, 0x61, 0x6c, 0x75, 0x65, 0x2f, 0x66, 0x75, 0x6c,
  0x6c, 0x79, 0x5f, 0x63, 0x6f, 0x6e, 0x6e, 0x65, 0x63, 0x74, 0x65, 0x64,
  0x5f, 0x31, 0x2f, 0x4d, 0x61, 0x74, 0x4d, 0x75, 0x6c, 0x5f, 0x62, 0x69,
  0x61, 0x73, 0x00, 0x00, 0x01, 0x00, 0x00, 0x00, 0x14, 0x00, 0x00, 0x00,
  0xaa, 0xfe, 0xff, 0xff, 0x54, 0x00, 0x00, 0x00, 0x03, 0x00, 0x00, 0x00,
  0x0c, 0x00, 0x00, 0x00, 0x04, 0x00, 0x00, 0x00, 0xf8, 0xfe, 0xff, 0xff,
  0x3a, 0x00, 0x00, 0x00, 0x64, 0x65, 0x65, 0x70, 0x71, 0x2f, 0x6d, 0x6f,
  0x64, 0x65, 0x6c, 0x2f, 0x61, 0x63, 0x74, 0x69, 0x6f, 0x6e, 0x5f, 0x76,
  0x61, 0x6c, 0x75, 0x65, 0x2f, 0x66, 0x75, 0x6c, 0x6c, 0x79, 0x5f, 0x63,
  0x6f, 0x6e, 0x6e, 0x65, 0x63, 0x74, 0x65, 0x64, 0x2f, 0x77, 0x65, 0x69,
  0x67, 0x68, 0x74, 0x73, 0x2f, 0x74, 0x72, 0x61, 0x6e, 0x73, 0x70, 0x6f,
  0x73, 0x65, 0x00, 0x00, 0x02, 0x00, 0x00, 0x00, 0x14, 0x00, 0x00, 0x00,
  0x14, 0x00, 0x00, 0x00, 0x0e, 0xff, 0xff, 0xff, 0x50, 0x00, 0x00, 0x00,
  0x02, 0x00, 0x00, 0x00, 0x0c, 0x00, 0x00, 0x00, 0x04, 0x00, 0x00, 0x00,
  0x5c, 0xff, 0xff, 0xff, 0x34, 0x00, 0x00, 0x00, 0x64, 0x65, 0x65, 0x70,
  0x71, 0x2f, 0x6d, 0x6f, 0x64, 0x65, 0x6c, 0x2f, 0x61, 0x63, 0x74, 0x69,
  0x6f, 0x6e, 0x5f, 0x76, 0x61, 0x6c, 0x75, 0x65, 0x2f, 0x66, 0x75, 0x6c,
  0x6c, 0x79, 0x5f, 0x63, 0x6f, 0x6e, 0x6e, 0x65, 0x63, 0x74, 0x65, 0x64,
  0x2f, 0x4d, 0x61, 0x74, 0x4d, 0x75, 0x6c, 0x5f, 0x62, 0x69, 0x61, 0x73,
  0x00, 0x00, 0x00, 0x00, 0x01, 0x00, 0x00, 0x00, 0x14, 0x00, 0x00, 0x00,
  0x6a, 0xff, 0xff, 0xff, 0x38, 0x00, 0x00, 0x00, 0x06, 0x00, 0x00, 0x00,
  0x0c, 0x00, 0x00, 0x00, 0x04, 0x00, 0x00, 0x00, 0xb8, 0xff, 0xff, 0xff,
  0x1f, 0x00, 0x00, 0x00, 0x64, 0x65, 0x65, 0x70, 0x71, 0x2f, 0x6d, 0x6f,
  0x64, 0x65, 0x6c, 0x2f, 0x61, 0x63, 0x74, 0x69, 0x6f, 0x6e, 0x5f, 0x76,
  0x61, 0x6c, 0x75, 0x65, 0x2f, 0x52, 0x65, 0x6c, 0x75, 0x5f, 0x31, 0x00,
  0x02, 0x00, 0x00, 0x00, 0x01, 0x00, 0x00, 0x00, 0x14, 0x00, 0x00, 0x00,
  0xb2, 0xff, 0xff, 0xff, 0x3c, 0x00, 0x00, 0x00, 0x0a, 0x00, 0x00, 0x00,
  0x10, 0x00, 0x00, 0x00, 0x08, 0x00, 0x00, 0x00, 0x04, 0x00, 0x04, 0x00,
  0x04, 0x00, 0x00, 0x00, 0x1d, 0x00, 0x00, 0x00, 0x64, 0x65, 0x65, 0x70,
  0x71, 0x2f, 0x6d, 0x6f, 0x64, 0x65, 0x6c, 0x2f, 0x61, 0x63, 0x74, 0x69,
  0x6f, 0x6e, 0x5f, 0x76, 0x61, 0x6c, 0x75, 0x65, 0x2f, 0x52, 0x65, 0x6c,
  0x75, 0x00, 0x00, 0x00, 0x02, 0x00, 0x00, 0x00, 0x01, 0x00, 0x00, 0x00,
  0x14, 0x00, 0x00, 0x00, 0x00, 0x00, 0x0e, 0x00, 0x14, 0x00, 0x04, 0x00,
  0x00, 0x00, 0x08, 0x00, 0x0c, 0x00, 0x10, 0x00, 0x0e, 0x00, 0x00, 0x00,
  0x48, 0x00, 0x00, 0x00, 0x08, 0x00, 0x00, 0x00, 0x2c, 0x00, 0x00, 0x00,
  0x0c, 0x00, 0x00, 0x00, 0x08, 0x00, 0x0c, 0x00, 0x04, 0x00, 0x08, 0x00,
  0x08, 0x00, 0x00, 0x00, 0x10, 0x00, 0x00, 0x00, 0x04, 0x00, 0x00, 0x00,
  0x01, 0x00, 0x00, 0x00, 0x00, 0x00, 0x7f, 0x43, 0x01, 0x00, 0x00, 0x00,
  0x00, 0x00, 0x00, 0x00, 0x0e, 0x00, 0x00, 0x00, 0x64, 0x65, 0x65, 0x70,
  0x71, 0x2f, 0x69, 0x6e, 0x70, 0x75, 0x74, 0x2f, 0x4f, 0x62, 0x00, 0x00,
  0x02, 0x00, 0x00, 0x00, 0x01, 0x00, 0x00, 0x00, 0x14, 0x00, 0x00, 0x00,
  0x01, 0x00, 0x00, 0x00, 0x10, 0x00, 0x00, 0x00, 0x00, 0x00, 0x0a, 0x00,
  0x0c, 0x00, 0x07, 0x00, 0x00, 0x00, 0x08, 0x00, 0x0a, 0x00, 0x00, 0x00,
  0x00, 0x00, 0x00, 0x09, 0x03, 0x00, 0x00, 0x00
};
unsigned int converted_lite_tflite_len = 5096;
