unsigned char converted_lite_tflite[] = {
  0x18, 0x00, 0x00, 0x00, 0x54, 0x46, 0x4c, 0x33, 0x00, 0x00, 0x0e, 0x00,
  0x18, 0x00, 0x04, 0x00, 0x08, 0x00, 0x0c, 0x00, 0x10, 0x00, 0x14, 0x00,
  0x0e, 0x00, 0x00, 0x00, 0x03, 0x00, 0x00, 0x00, 0x80, 0x0b, 0x00, 0x00,
  0x0c, 0x00, 0x00, 0x00, 0x10, 0x00, 0x00, 0x00, 0x20, 0x00, 0x00, 0x00,
  0x01, 0x00, 0x00, 0x00, 0xb4, 0x04, 0x00, 0x00, 0x0f, 0x00, 0x00, 0x00,
  0x54, 0x4f, 0x43, 0x4f, 0x20, 0x43, 0x6f, 0x6e, 0x76, 0x65, 0x72, 0x74,
  0x65, 0x64, 0x2e, 0x00, 0x0b, 0x00, 0x00, 0x00, 0x94, 0x04, 0x00, 0x00,
  0x48, 0x04, 0x00, 0x00, 0xe0, 0x03, 0x00, 0x00, 0x40, 0x02, 0x00, 0x00,
  0x38, 0x02, 0x00, 0x00, 0x1c, 0x02, 0x00, 0x00, 0x14, 0x02, 0x00, 0x00,
  0xb4, 0x01, 0x00, 0x00, 0xac, 0x01, 0x00, 0x00, 0x0c, 0x00, 0x00, 0x00,
  0x04, 0x00, 0x00, 0x00, 0x70, 0xf5, 0xff, 0xff, 0xea, 0xfb, 0xff, 0xff,
  0x04, 0x00, 0x00, 0x00, 0x90, 0x01, 0x00, 0x00, 0xad, 0xb8, 0xb5, 0x9f,
  0xc7, 0x8f, 0xad, 0xac, 0xb0, 0x9c, 0xa2, 0xa1, 0xb4, 0xc0, 0xa4, 0xb0,
  0xa0, 0x99, 0xae, 0xb8, 0xaf, 0xbd, 0x90, 0x91, 0xc5, 0xa1, 0xc2, 0xa9,
  0x91, 0xa2, 0xa1, 0xc3, 0x98, 0xac, 0x76, 0xc4, 0xb8, 0xa9, 0x9e, 0x92,
  0x8f, 0x87, 0x90, 0x8d, 0xba, 0xb3, 0xaf, 0x9e, 0x89, 0xad, 0x8a, 0xb3,
  0xc0, 0xb9, 0x89, 0x8e, 0xb5, 0xba, 0x9f, 0x8f, 0xac, 0x92, 0x8d, 0xa4,
  0x99, 0xbf, 0xa6, 0xbe, 0x9b, 0xaa, 0xb3, 0x8e, 0x89, 0xaf, 0x9d, 0x9b,
  0xa7, 0x99, 0xaa, 0xbe, 0x9a, 0x8b, 0x89, 0x8c, 0x95, 0xc0, 0x9e, 0xbd,
  0x98, 0xb6, 0xaf, 0xbd, 0x9f, 0xb7, 0x9c, 0x9f, 0x9b, 0xba, 0xad, 0x85,
  0xa3, 0xe9, 0xa3, 0x95, 0x9c, 0x89, 0x89, 0xb7, 0xc4, 0xb9, 0x71, 0x97,
  0x99, 0xcb, 0x97, 0xbe, 0xbf, 0xe0, 0xcd, 0xc2, 0xc1, 0x5c, 0x99, 0x32,
  0xc5, 0x8f, 0x3e, 0xdd, 0x71, 0xf7, 0xda, 0x78, 0xbc, 0x67, 0x00, 0x77,
  0x8e, 0xf7, 0x78, 0x85, 0xa3, 0x91, 0x98, 0x79, 0xb0, 0xbb, 0xa7, 0x91,
  0xa6, 0xe9, 0xbf, 0x8a, 0xae, 0x7e, 0xd2, 0x7c, 0x9f, 0xd3, 0x8e, 0x7f,
  0xb4, 0xfa, 0xd4, 0xbd, 0x8c, 0xc4, 0xeb, 0xa3, 0xd5, 0xba, 0x9d, 0xd3,
  0xcb, 0xbc, 0xb0, 0xe3, 0xc6, 0xdf, 0xd6, 0xfa, 0xd2, 0xd3, 0xb1, 0xa0,
  0xa4, 0x98, 0xff, 0x78, 0xd6, 0xa9, 0x73, 0xc3, 0xc2, 0xd1, 0xdb, 0xd3,
  0xc6, 0x9e, 0xcd, 0xca, 0xad, 0x96, 0x89, 0xa6, 0xb6, 0x92, 0xb6, 0xc1,
  0x90, 0xac, 0xa0, 0xc8, 0xa1, 0xaa, 0x96, 0xaa, 0xc3, 0xa0, 0x89, 0xc5,
  0x9d, 0xe3, 0xd9, 0xc1, 0xaf, 0xac, 0xe7, 0x9a, 0x9a, 0xa1, 0x9b, 0xab,
  0xb5, 0xde, 0xae, 0xa1, 0xb2, 0xa4, 0xa1, 0xa4, 0x8b, 0xc3, 0x8f, 0xa3,
  0xb3, 0xaa, 0x89, 0x96, 0x86, 0x8e, 0xae, 0xb2, 0xbe, 0xb6, 0x87, 0x95,
  0xaf, 0x98, 0xba, 0xb6, 0x9a, 0xd8, 0x9a, 0xec, 0x9d, 0xb8, 0xa1, 0xef,
  0xac, 0xd1, 0xab, 0x9c, 0x93, 0xca, 0x35, 0xab, 0x62, 0xc2, 0xc6, 0x9e,
  0x9d, 0xdb, 0xb1, 0x82, 0xab, 0x8a, 0xa8, 0xbe, 0x95, 0x92, 0xb6, 0xc0,
  0xb2, 0x99, 0xad, 0xbb, 0x9d, 0xa2, 0x85, 0xad, 0xa3, 0xb8, 0x93, 0xbd,
  0xa0, 0xa3, 0xb0, 0xb2, 0x8c, 0xb5, 0xc4, 0xb4, 0x8e, 0xa9, 0xa7, 0xa0,
  0xb5, 0x96, 0x9b, 0xb7, 0xb9, 0x5d, 0x96, 0xa3, 0x8c, 0x8a, 0x88, 0xe0,
  0x8e, 0x9d, 0xf7, 0xb6, 0xc4, 0x7a, 0x9f, 0x8c, 0x8e, 0x82, 0x92, 0x90,
  0xd2, 0xe5, 0xbd, 0xb8, 0xb2, 0x8b, 0xe7, 0x98, 0xe5, 0x97, 0x6f, 0xe6,
  0xcc, 0xe0, 0xa0, 0xd8, 0xe8, 0xe9, 0xc1, 0xa3, 0xb8, 0x9a, 0x8a, 0xb5,
  0xa4, 0x95, 0xa0, 0xb1, 0x97, 0x8a, 0xb8, 0xb0, 0xa1, 0xac, 0xa3, 0xa3,
  0xb0, 0x9f, 0x8e, 0x94, 0x9f, 0xa7, 0x97, 0x9c, 0x96, 0xa6, 0x91, 0xc4,
  0xaa, 0x93, 0xa2, 0xa9, 0x8e, 0x9b, 0x97, 0xa7, 0x97, 0xa6, 0x9e, 0x8a,
  0x10, 0xf7, 0xff, 0xff, 0x8a, 0xfd, 0xff, 0xff, 0x04, 0x00, 0x00, 0x00,
  0x50, 0x00, 0x00, 0x00, 0x2d, 0x00, 0x00, 0x00, 0xfd, 0xff, 0xff, 0xff,
  0xf8, 0xff, 0xff, 0xff, 0x00, 0x00, 0x00, 0x00, 0xfa, 0xff, 0xff, 0xff,
  0x81, 0x00, 0x00, 0x00, 0xe3, 0xff, 0xff, 0xff, 0xfd, 0xff, 0xff, 0xff,
  0xb4, 0x00, 0x00, 0x00, 0x74, 0x00, 0x00, 0x00, 0xfe, 0xff, 0xff, 0xff,
  0x5d, 0x00, 0x00, 0x00, 0xfc, 0xff, 0xff, 0xff, 0x24, 0x00, 0x00, 0x00,
  0x28, 0x00, 0x00, 0x00, 0xfb, 0xff, 0xff, 0xff, 0x7b, 0xff, 0xff, 0xff,
  0xb7, 0x00, 0x00, 0x00, 0x00, 0x00, 0x00, 0x00, 0x00, 0x00, 0x00, 0x00,
  0x70, 0xf7, 0xff, 0xff, 0xea, 0xfd, 0xff, 0xff, 0x04, 0x00, 0x00, 0x00,
  0x0c, 0x00, 0x00, 0x00, 0xda, 0xff, 0xff, 0xff, 0xb0, 0xff, 0xff, 0xff,
  0xb5, 0xff, 0xff, 0xff, 0x8c, 0xf7, 0xff, 0xff, 0x06, 0xfe, 0xff, 0xff,
  0x04, 0x00, 0x00, 0x00, 0x90, 0x01, 0x00, 0x00, 0x7f, 0x89, 0x76, 0x72,
  0x90, 0x65, 0x7f, 0x76, 0x78, 0x65, 0x59, 0x69, 0x76, 0x68, 0x2f, 0x68,
  0x67, 0x6b, 0x69, 0x5a, 0x75, 0x5f, 0x69, 0x5a, 0x36, 0x5d, 0x6b, 0x6a,
  0x5f, 0x81, 0x69, 0x51, 0x64, 0x66, 0x79, 0x67, 0x67, 0x69, 0x65, 0x66,
  0x71, 0x6f, 0x6a, 0x65, 0x23, 0x6d, 0x74, 0x6d, 0x6e, 0x69, 0x6c, 0x5e,
  0x61, 0x56, 0x6e, 0x5f, 0x58, 0x6a, 0x54, 0x74, 0x71, 0x49, 0x69, 0x6a,
  0x3a, 0x64, 0x53, 0x6e, 0x6a, 0x89, 0x5c, 0x67, 0x5e, 0x68, 0x6d, 0x63,
  0x5f, 0x62, 0x64, 0x6d, 0x53, 0x53, 0x55, 0x59, 0x60, 0x52, 0x67, 0x76,
  0x53, 0x6b, 0x6d, 0x51, 0x6c, 0x5a, 0x70, 0x6e, 0x5d, 0x52, 0x68, 0x5d,
  0x59, 0x5b, 0x55, 0x5d, 0x74, 0x63, 0x65, 0x50, 0x52, 0x6e, 0x53, 0x6c,
  0x4f, 0x5d, 0x66, 0x62, 0x6f, 0x6c, 0x50, 0x71, 0x71, 0x4c, 0x55, 0x78,
  0x0d, 0x65, 0x6b, 0x64, 0x65, 0x65, 0x64, 0x68, 0x66, 0x67, 0x8c, 0x64,
  0x69, 0x6a, 0x69, 0x8d, 0x6d, 0x5d, 0x62, 0x37, 0x95, 0x62, 0x5f, 0x6f,
  0x52, 0x95, 0x73, 0x61, 0x66, 0x65, 0x69, 0x65, 0x66, 0x4f, 0x5f, 0x75,
  0x58, 0x68, 0x6d, 0x71, 0x0d, 0x63, 0x64, 0x67, 0x67, 0x76, 0x5e, 0x74,
  0x67, 0x5b, 0x5c, 0x6e, 0x5c, 0x69, 0x71, 0x67, 0x65, 0x70, 0x6f, 0x68,
  0xff, 0x69, 0x57, 0x61, 0x59, 0x86, 0x61, 0x75, 0x5d, 0x64, 0x5a, 0x65,
  0x6b, 0x69, 0x66, 0x55, 0x7a, 0x55, 0x5e, 0x61, 0xb8, 0x74, 0x64, 0x71,
  0x62, 0x4b, 0x6b, 0x67, 0x6a, 0x6b, 0x56, 0x74, 0x78, 0x7d, 0x68, 0x6c,
  0x7d, 0x57, 0x62, 0x5e, 0x47, 0x68, 0x69, 0x78, 0x51, 0x57, 0x66, 0x76,
  0x66, 0x5e, 0x60, 0x55, 0x61, 0x5b, 0x5e, 0x60, 0x73, 0x85, 0x6c, 0x7a,
  0x8a, 0x6b, 0x74, 0x7f, 0x70, 0x59, 0x7a, 0x7c, 0x77, 0x7d, 0x36, 0x67,
  0x71, 0x5e, 0x67, 0x4b, 0x65, 0x68, 0x67, 0x79, 0x15, 0x75, 0x5a, 0x68,
  0x58, 0x82, 0x56, 0x6e, 0x6a, 0x72, 0x6d, 0x66, 0x6a, 0x56, 0x56, 0x6b,
  0x65, 0x88, 0x60, 0x30, 0x4f, 0x67, 0x68, 0x68, 0x66, 0x8e, 0x60, 0x65,
  0x63, 0x69, 0x7f, 0x62, 0x65, 0x61, 0x64, 0x6b, 0x75, 0x5d, 0x69, 0x71,
  0x00, 0x76, 0x5f, 0x63, 0x63, 0x70, 0x6c, 0x62, 0x5f, 0x5f, 0x62, 0x72,
  0x5d, 0x73, 0x63, 0x66, 0x5d, 0x80, 0x4a, 0x58, 0x4a, 0x68, 0x51, 0x6c,
  0x64, 0x5d, 0x6c, 0x68, 0x65, 0x6e, 0x5e, 0x6a, 0x6c, 0x6e, 0x6a, 0x63,
  0x64, 0x58, 0x4f, 0x50, 0xb2, 0x69, 0x70, 0x69, 0x67, 0x6b, 0x65, 0x72,
  0x6e, 0x6b, 0x49, 0x68, 0x73, 0x69, 0x69, 0x35, 0x67, 0x5a, 0x79, 0x65,
  0x23, 0x68, 0x62, 0x58, 0x7c, 0x81, 0x77, 0x5f, 0x65, 0x5d, 0x6d, 0x57,
  0x71, 0x6e, 0x6a, 0x5f, 0x5b, 0x62, 0x66, 0x62, 0x40, 0x5b, 0x6b, 0x6d,
  0x60, 0x7a, 0x5f, 0x6e, 0x63, 0x68, 0x69, 0x66, 0x67, 0x67, 0x67, 0x64,
  0xa2, 0xff, 0xff, 0xff, 0x04, 0x00, 0x00, 0x00, 0x50, 0x00, 0x00, 0x00,
  0xd6, 0x12, 0x00, 0x00, 0x31, 0x13, 0x00, 0x00, 0x58, 0x13, 0x00, 0x00,
  0x40, 0x10, 0x00, 0x00, 0xcc, 0xff, 0xff, 0xff, 0x8a, 0xff, 0xff, 0xff,
  0x09, 0x13, 0x00, 0x00, 0xb1, 0x00, 0x00, 0x00, 0x05, 0x17, 0x00, 0x00,
  0x95, 0x09, 0x00, 0x00, 0x42, 0xed, 0xff, 0xff, 0xef, 0x01, 0x00, 0x00,
  0xd6, 0x0d, 0x00, 0x00, 0x88, 0x14, 0x00, 0x00, 0x62, 0x0a, 0x00, 0x00,
  0x73, 0x17, 0x00, 0x00, 0x5e, 0x0d, 0x00, 0x00, 0xfa, 0x10, 0x00, 0x00,
  0x6d, 0x16, 0x00, 0x00, 0x4f, 0x12, 0x00, 0x00, 0x00, 0x00, 0x06, 0x00,
  0x08, 0x00, 0x04, 0x00, 0x06, 0x00, 0x00, 0x00, 0x04, 0x00, 0x00, 0x00,
  0x3c, 0x00, 0x00, 0x00, 0x50, 0x3c, 0x51, 0x4e, 0x46, 0x08, 0xff, 0x6c,
  0x41, 0x32, 0x54, 0x42, 0x5e, 0x06, 0x4e, 0x4e, 0xbe, 0x4c, 0x58, 0x4e,
  0x3e, 0x4d, 0x45, 0x5d, 0x45, 0x00, 0xa4, 0x6c, 0x3f, 0x4c, 0x3d, 0x51,
  0x63, 0x44, 0x49, 0x55, 0xb2, 0x3a, 0x48, 0x56, 0x5b, 0x59, 0x5a, 0x4f,
  0x58, 0x02, 0xa3, 0x70, 0x3f, 0x43, 0x3e, 0x46, 0x57, 0x43, 0x43, 0x52,
  0xb0, 0x3d, 0x3f, 0x67, 0xd8, 0xf9, 0xff, 0xff, 0x64, 0xfa, 0xff, 0xff,
  0x20, 0x00, 0x00, 0x00, 0x14, 0x00, 0x00, 0x00, 0x08, 0x00, 0x00, 0x00,
  0xd0, 0x05, 0x00, 0x00, 0x01, 0x00, 0x00, 0x00, 0x07, 0x00, 0x00, 0x00,
  0x01, 0x00, 0x00, 0x00, 0x00, 0x00, 0x00, 0x00, 0x0a, 0x00, 0x00, 0x00,
  0x48, 0x01, 0x00, 0x00, 0x24, 0x00, 0x00, 0x00, 0x30, 0x02, 0x00, 0x00,
  0x64, 0x04, 0x00, 0x00, 0xc4, 0x03, 0x00, 0x00, 0xa8, 0x01, 0x00, 0x00,
  0x90, 0x00, 0x00, 0x00, 0x20, 0x03, 0x00, 0x00, 0x9c, 0x02, 0x00, 0x00,
  0xe8, 0x04, 0x00, 0x00, 0x2a, 0xfb, 0xff, 0xff, 0x00, 0x00, 0x00, 0x03,
  0x10, 0x00, 0x00, 0x00, 0x0a, 0x00, 0x00, 0x00, 0x14, 0x00, 0x00, 0x00,
  0x34, 0x00, 0x00, 0x00, 0x02, 0x00, 0x00, 0x00, 0x01, 0x00, 0x00, 0x00,
  0x14, 0x00, 0x00, 0x00, 0x1d, 0x00, 0x00, 0x00, 0x64, 0x65, 0x65, 0x70,
  0x71, 0x2f, 0x6d, 0x6f, 0x64, 0x65, 0x6c, 0x2f, 0x61, 0x63, 0x74, 0x69,
  0x6f, 0x6e, 0x5f, 0x76, 0x61, 0x6c, 0x75, 0x65, 0x2f, 0x52, 0x65, 0x6c,
  0x75, 0x00, 0x00, 0x00, 0xfc, 0xfa, 0xff, 0xff, 0x2c, 0x00, 0x00, 0x00,
  0x20, 0x00, 0x00, 0x00, 0x14, 0x00, 0x00, 0x00, 0x04, 0x00, 0x00, 0x00,
  0x01, 0x00, 0x00, 0x00, 0x5c, 0x00, 0x00, 0x00, 0x00, 0x00, 0x00, 0x00,
  0x01, 0x00, 0x00, 0x00, 0x91, 0x90, 0x90, 0x3f, 0x01, 0x00, 0x00, 0x00,
  0x18, 0x18, 0x38, 0x43, 0x01, 0x00, 0x00, 0x00, 0xd0, 0xcf, 0xcf, 0xc2,
  0xaa, 0xfb, 0xff, 0xff, 0x00, 0x00, 0x00, 0x03, 0x10, 0x00, 0x00, 0x00,
  0x09, 0x00, 0x00, 0x00, 0x14, 0x00, 0x00, 0x00, 0x54, 0x00, 0x00, 0x00,
  0x02, 0x00, 0x00, 0x00, 0x14, 0x00, 0x00, 0x00, 0x14, 0x00, 0x00, 0x00,
  0x3c, 0x00, 0x00, 0x00, 0x64, 0x65, 0x65, 0x70, 0x71, 0x2f, 0x6d, 0x6f,
  0x64, 0x65, 0x6c, 0x2f, 0x61, 0x63, 0x74, 0x69, 0x6f, 0x6e, 0x5f, 0x76,
  0x61, 0x6c, 0x75, 0x65, 0x2f, 0x66, 0x75, 0x6c, 0x6c, 0x79, 0x5f, 0x63,
  0x6f, 0x6e, 0x6e, 0x65, 0x63, 0x74, 0x65, 0x64, 0x5f, 0x31, 0x2f, 0x77,
  0x65, 0x69, 0x67, 0x68, 0x74, 0x73, 0x2f, 0x74, 0x72, 0x61, 0x6e, 0x73,
  0x70, 0x6f, 0x73, 0x65, 0x00, 0x00, 0x00, 0x00, 0x9c, 0xfb, 0xff, 0xff,
  0x2c, 0x00, 0x00, 0x00, 0x20, 0x00, 0x00, 0x00, 0x14, 0x00, 0x00, 0x00,
  0x04, 0x00, 0x00, 0x00, 0x01, 0x00, 0x00, 0x00, 0xa8, 0x00, 0x00, 0x00,
  0x00, 0x00, 0x00, 0x00, 0x01, 0x00, 0x00, 0x00, 0xf8, 0xae, 0x44, 0x3c,
  0x01, 0x00, 0x00, 0x00, 0x3c, 0xf5, 0x85, 0x3f, 0x01, 0x00, 0x00, 0x00,
  0xab, 0xef, 0x00, 0xc0, 0x4a, 0xfc, 0xff, 0xff, 0x00, 0x00, 0x00, 0x03,
  0x10, 0x00, 0x00, 0x00, 0x08, 0x00, 0x00, 0x00, 0x14, 0x00, 0x00, 0x00,
  0x24, 0x00, 0x00, 0x00, 0x02, 0x00, 0x00, 0x00, 0x01, 0x00, 0x00, 0x00,
  0x14, 0x00, 0x00, 0x00, 0x0e, 0x00, 0x00, 0x00, 0x64, 0x65, 0x65, 0x70,
  0x71, 0x2f, 0x69, 0x6e, 0x70, 0x75, 0x74, 0x2f, 0x4f, 0x62, 0x00, 0x00,
  0x0c, 0xfc, 0xff, 0xff, 0x30, 0x00, 0x00, 0x00, 0x24, 0x00, 0x00, 0x00,
  0x18, 0x00, 0x00, 0x00, 0x04, 0x00, 0x00, 0x00, 0x01, 0x00, 0x00, 0x00,
  0x00, 0x00, 0x00, 0x00, 0x00, 0x00, 0x00, 0x00, 0x00, 0x00, 0x00, 0x00,
  0x01, 0x00, 0x00, 0x00, 0xa1, 0xa0, 0xa0, 0x3c, 0x01, 0x00, 0x00, 0x00,
  0x00, 0x00, 0xa0, 0x40, 0x01, 0x00, 0x00, 0x00, 0x00, 0x00, 0x00, 0x00,
  0xbe, 0xfc, 0xff, 0xff, 0x00, 0x00, 0x00, 0x02, 0x10, 0x00, 0x00, 0x00,
  0x07, 0x00, 0x00, 0x00, 0x10, 0x00, 0x00, 0x00, 0x48, 0x00, 0x00, 0x00,
  0x01, 0x00, 0x00, 0x00, 0x14, 0x00, 0x00, 0x00, 0x36, 0x00, 0x00, 0x00,
  0x64, 0x65, 0x65, 0x70, 0x71, 0x2f, 0x6d, 0x6f, 0x64, 0x65, 0x6c, 0x2f,
  0x61, 0x63, 0x74, 0x69, 0x6f, 0x6e, 0x5f, 0x76, 0x61, 0x6c, 0x75, 0x65,
  0x2f, 0x66, 0x75, 0x6c, 0x6c, 0x79, 0x5f, 0x63, 0x6f, 0x6e, 0x6e, 0x65,
  0x63, 0x74, 0x65, 0x64, 0x5f, 0x31, 0x2f, 0x4d, 0x61, 0x74, 0x4d, 0x75,
  0x6c, 0x5f, 0x62, 0x69, 0x61, 0x73, 0x00, 0x00, 0x4c, 0xfd, 0xff, 0xff,
  0x14, 0x00, 0x00, 0x00, 0x04, 0x00, 0x00, 0x00, 0x01, 0x00, 0x00, 0x00,
  0x00, 0x00, 0x00, 0x00, 0x00, 0x00, 0x00, 0x00, 0x01, 0x00, 0x00, 0x00,
  0xfa, 0x22, 0x5e, 0x3c, 0x3a, 0xfd, 0xff, 0xff, 0x00, 0x00, 0x00, 0x03,
  0x10, 0x00, 0x00, 0x00, 0x06, 0x00, 0x00, 0x00, 0x14, 0x00, 0x00, 0x00,
  0x34, 0x00, 0x00, 0x00, 0x02, 0x00, 0x00, 0x00, 0x01, 0x00, 0x00, 0x00,
  0x14, 0x00, 0x00, 0x00, 0x1f, 0x00, 0x00, 0x00, 0x64, 0x65, 0x65, 0x70,
  0x71, 0x2f, 0x6d, 0x6f, 0x64, 0x65, 0x6c, 0x2f, 0x61, 0x63, 0x74, 0x69,
  0x6f, 0x6e, 0x5f, 0x76, 0x61, 0x6c, 0x75, 0x65, 0x2f, 0x52, 0x65, 0x6c,
  0x75, 0x5f, 0x31, 0x00, 0x0c, 0xfd, 0xff, 0xff, 0x30, 0x00, 0x00, 0x00,
  0x24, 0x00, 0x00, 0x00, 0x18, 0x00, 0x00, 0x00, 0x04, 0x00, 0x00, 0x00,
  0x01, 0x00, 0x00, 0x00, 0x5c, 0x00, 0x00, 0x00, 0x00, 0x00, 0x00, 0x00,
  0x00, 0x00, 0x00, 0x00, 0x01, 0x00, 0x00, 0x00, 0x91, 0x90, 0x90, 0x3f,
  0x01, 0x00, 0x00, 0x00, 0x18, 0x18, 0x38, 0x43, 0x01, 0x00, 0x00, 0x00,
  0xd0, 0xcf, 0xcf, 0xc2, 0xbe, 0xfd, 0xff, 0xff, 0x00, 0x00, 0x00, 0x02,
  0x10, 0x00, 0x00, 0x00, 0x05, 0x00, 0x00, 0x00, 0x10, 0x00, 0x00, 0x00,
  0x48, 0x00, 0x00, 0x00, 0x01, 0x00, 0x00, 0x00, 0x03, 0x00, 0x00, 0x00,
  0x36, 0x00, 0x00, 0x00, 0x64, 0x65, 0x65, 0x70, 0x71, 0x2f, 0x6d, 0x6f,
  0x64, 0x65, 0x6c, 0x2f, 0x61, 0x63, 0x74, 0x69, 0x6f, 0x6e, 0x5f, 0x76,
  0x61, 0x6c, 0x75, 0x65, 0x2f, 0x66, 0x75, 0x6c, 0x6c, 0x79, 0x5f, 0x63,
  0x6f, 0x6e, 0x6e, 0x65, 0x63, 0x74, 0x65, 0x64, 0x5f, 0x32, 0x2f, 0x4d,
  0x61, 0x74, 0x4d, 0x75, 0x6c, 0x5f, 0x62, 0x69, 0x61, 0x73, 0x00, 0x00,
  0x4c, 0xfe, 0xff, 0xff, 0x18, 0x00, 0x00, 0x00, 0x04, 0x00, 0x00, 0x00,
  0x01, 0x00, 0x00, 0x00, 0x00, 0x00, 0x00, 0x00, 0x00, 0x00, 0x00, 0x00,
  0x00, 0x00, 0x00, 0x00, 0x01, 0x00, 0x00, 0x00, 0x97, 0xfe, 0xcc, 0x3c,
  0x3e, 0xfe, 0xff, 0xff, 0x00, 0x00, 0x00, 0x03, 0x10, 0x00, 0x00, 0x00,
  0x04, 0x00, 0x00, 0x00, 0x14, 0x00, 0x00, 0x00, 0x48, 0x00, 0x00, 0x00,
  0x02, 0x00, 0x00, 0x00, 0x01, 0x00, 0x00, 0x00, 0x03, 0x00, 0x00, 0x00,
  0x32, 0x00, 0x00, 0x00, 0x64, 0x65, 0x65, 0x70, 0x71, 0x2f, 0x6d, 0x6f,
  0x64, 0x65, 0x6c, 0x2f, 0x61, 0x63, 0x74, 0x69, 0x6f, 0x6e, 0x5f, 0x76,
  0x61, 0x6c, 0x75, 0x65, 0x2f, 0x66, 0x75, 0x6c, 0x6c, 0x79, 0x5f, 0x63,
  0x6f, 0x6e, 0x6e, 0x65, 0x63, 0x74, 0x65, 0x64, 0x5f, 0x32, 0x2f, 0x42,
  0x69, 0x61, 0x73, 0x41, 0x64, 0x64, 0x00, 0x00, 0x24, 0xfe, 0xff, 0xff,
  0x30, 0x00, 0x00, 0x00, 0x24, 0x00, 0x00, 0x00, 0x18, 0x00, 0x00, 0x00,
  0x04, 0x00, 0x00, 0x00, 0x01, 0x00, 0x00, 0x00, 0x5c, 0x00, 0x00, 0x00,
  0x00, 0x00, 0x00, 0x00, 0x00, 0x00, 0x00, 0x00, 0x01, 0x00, 0x00, 0x00,
  0x91, 0x90, 0x90, 0x3f, 0x01, 0x00, 0x00, 0x00, 0x18, 0x18, 0x38, 0x43,
  0x01, 0x00, 0x00, 0x00, 0xd0, 0xcf, 0xcf, 0xc2, 0xd6, 0xfe, 0xff, 0xff,
  0x00, 0x00, 0x00, 0x03, 0x10, 0x00, 0x00, 0x00, 0x03, 0x00, 0x00, 0x00,
  0x14, 0x00, 0x00, 0x00, 0x50, 0x00, 0x00, 0x00, 0x02, 0x00, 0x00, 0x00,
  0x14, 0x00, 0x00, 0x00, 0x14, 0x00, 0x00, 0x00, 0x3a, 0x00, 0x00, 0x00,
  0x64, 0x65, 0x65, 0x70, 0x71, 0x2f, 0x6d, 0x6f, 0x64, 0x65, 0x6c, 0x2f,
  0x61, 0x63, 0x74, 0x69, 0x6f, 0x6e, 0x5f, 0x76, 0x61, 0x6c, 0x75, 0x65,
  0x2f, 0x66, 0x75, 0x6c, 0x6c, 0x79, 0x5f, 0x63, 0x6f, 0x6e, 0x6e, 0x65,
  0x63, 0x74, 0x65, 0x64, 0x2f, 0x77, 0x65, 0x69, 0x67, 0x68, 0x74, 0x73,
  0x2f, 0x74, 0x72, 0x61, 0x6e, 0x73, 0x70, 0x6f, 0x73, 0x65, 0x00, 0x00,
  0xc4, 0xfe, 0xff, 0xff, 0x2c, 0x00, 0x00, 0x00, 0x20, 0x00, 0x00, 0x00,
  0x14, 0x00, 0x00, 0x00, 0x04, 0x00, 0x00, 0x00, 0x01, 0x00, 0x00, 0x00,
  0x64, 0x00, 0x00, 0x00, 0x00, 0x00, 0x00, 0x00, 0x01, 0x00, 0x00, 0x00,
  0x62, 0xcf, 0xa1, 0x3c, 0x01, 0x00, 0x00, 0x00, 0x3f, 0xe8, 0x43, 0x40,
  0x01, 0x00, 0x00, 0x00, 0xcd, 0xe5, 0xfc, 0xbf, 0x72, 0xff, 0xff, 0xff,
  0x00, 0x00, 0x00, 0x02, 0x10, 0x00, 0x00, 0x00, 0x02, 0x00, 0x00, 0x00,
  0x10, 0x00, 0x00, 0x00, 0x54, 0x00, 0x00, 0x00, 0x01, 0x00, 0x00, 0x00,
  0x14, 0x00, 0x00, 0x00, 0x34, 0x00, 0x00, 0x00, 0x64, 0x65, 0x65, 0x70,
  0x71, 0x2f, 0x6d, 0x6f, 0x64, 0x65, 0x6c, 0x2f, 0x61, 0x63, 0x74, 0x69,
  0x6f, 0x6e, 0x5f, 0x76, 0x61, 0x6c, 0x75, 0x65, 0x2f, 0x66, 0x75, 0x6c,
  0x6c, 0x79, 0x5f, 0x63, 0x6f, 0x6e, 0x6e, 0x65, 0x63, 0x74, 0x65, 0x64,
  0x2f, 0x4d, 0x61, 0x74, 0x4d, 0x75, 0x6c, 0x5f, 0x62, 0x69, 0x61, 0x73,
  0x00, 0x00, 0x00, 0x00, 0x0c, 0x00, 0x0c, 0x00, 0x00, 0x00, 0x00, 0x00,
  0x04, 0x00, 0x08, 0x00, 0x0c, 0x00, 0x00, 0x00, 0x18, 0x00, 0x00, 0x00,
  0x04, 0x00, 0x00, 0x00, 0x01, 0x00, 0x00, 0x00, 0x00, 0x00, 0x00, 0x00,
  0x00, 0x00, 0x00, 0x00, 0x00, 0x00, 0x00, 0x00, 0x01, 0x00, 0x00, 0x00,
  0x49, 0x0e, 0xcb, 0x39, 0x00, 0x00, 0x0e, 0x00, 0x18, 0x00, 0x08, 0x00,
  0x07, 0x00, 0x0c, 0x00, 0x10, 0x00, 0x14, 0x00, 0x0e, 0x00, 0x00, 0x00,
  0x00, 0x00, 0x00, 0x03, 0x10, 0x00, 0x00, 0x00, 0x01, 0x00, 0x00, 0x00,
  0x14, 0x00, 0x00, 0x00, 0x60, 0x00, 0x00, 0x00, 0x02, 0x00, 0x00, 0x00,
  0x03, 0x00, 0x00, 0x00, 0x14, 0x00, 0x00, 0x00, 0x3c, 0x00, 0x00, 0x00,
  0x64, 0x65, 0x65, 0x70, 0x71, 0x2f, 0x6d, 0x6f, 0x64, 0x65, 0x6c, 0x2f,
  0x61, 0x63, 0x74, 0x69, 0x6f, 0x6e, 0x5f, 0x76, 0x61, 0x6c, 0x75, 0x65,
  0x2f, 0x66, 0x75, 0x6c, 0x6c, 0x79, 0x5f, 0x63, 0x6f, 0x6e, 0x6e, 0x65,
  0x63, 0x74, 0x65, 0x64, 0x5f, 0x32, 0x2f, 0x77, 0x65, 0x69, 0x67, 0x68,
  0x74, 0x73, 0x2f, 0x74, 0x72, 0x61, 0x6e, 0x73, 0x70, 0x6f, 0x73, 0x65,
  0x00, 0x00, 0x00, 0x00, 0x0c, 0x00, 0x14, 0x00, 0x04, 0x00, 0x08, 0x00,
  0x0c, 0x00, 0x10, 0x00, 0x0c, 0x00, 0x00, 0x00, 0x2c, 0x00, 0x00, 0x00,
  0x20, 0x00, 0x00, 0x00, 0x14, 0x00, 0x00, 0x00, 0x04, 0x00, 0x00, 0x00,
  0x01, 0x00, 0x00, 0x00, 0x54, 0x00, 0x00, 0x00, 0x00, 0x00, 0x00, 0x00,
  0x01, 0x00, 0x00, 0x00, 0x6b, 0x81, 0xb5, 0x3c, 0x01, 0x00, 0x00, 0x00,
  0x8b, 0xeb, 0x72, 0x40, 0x01, 0x00, 0x00, 0x00, 0x90, 0x58, 0xed, 0xbf,
  0x03, 0x00, 0x00, 0x00, 0x98, 0x00, 0x00, 0x00, 0x44, 0x00, 0x00, 0x00,
  0x04, 0x00, 0x00, 0x00, 0x88, 0xff, 0xff, 0xff, 0x00, 0x00, 0x00, 0x08,
  0x10, 0x00, 0x00, 0x00, 0x1c, 0x00, 0x00, 0x00, 0x28, 0x00, 0x00, 0x00,
  0x1c, 0x00, 0x00, 0x00, 0x03, 0x00, 0x00, 0x00, 0x02, 0x00, 0x00, 0x00,
  0x09, 0x00, 0x00, 0x00, 0x08, 0x00, 0x00, 0x00, 0x01, 0x00, 0x00, 0x00,
  0x07, 0x00, 0x00, 0x00, 0x00, 0x00, 0x00, 0x00, 0x04, 0x00, 0x04, 0x00,
  0x04, 0x00, 0x00, 0x00, 0xc4, 0xff, 0xff, 0xff, 0x00, 0x00, 0x00, 0x08,
  0x10, 0x00, 0x00, 0x00, 0x1c, 0x00, 0x00, 0x00, 0x24, 0x00, 0x00, 0x00,
  0x1c, 0x00, 0x00, 0x00, 0x03, 0x00, 0x00, 0x00, 0x01, 0x00, 0x00, 0x00,
  0x06, 0x00, 0x00, 0x00, 0x05, 0x00, 0x00, 0x00, 0x01, 0x00, 0x00, 0x00,
  0x02, 0x00, 0x00, 0x00, 0x00, 0x00, 0x00, 0x00, 0x8e, 0xff, 0xff, 0xff,
  0x00, 0x00, 0x00, 0x01, 0x14, 0x00, 0x18, 0x00, 0x00, 0x00, 0x08, 0x00,
  0x0c, 0x00, 0x07, 0x00, 0x10, 0x00, 0x00, 0x00, 0x00, 0x00, 0x14, 0x00,
  0x14, 0x00, 0x00, 0x00, 0x00, 0x00, 0x00, 0x08, 0x10, 0x00, 0x00, 0x00,
  0x1c, 0x00, 0x00, 0x00, 0x24, 0x00, 0x00, 0x00, 0x1c, 0x00, 0x00, 0x00,
  0x03, 0x00, 0x00, 0x00, 0x00, 0x00, 0x00, 0x00, 0x04, 0x00, 0x00, 0x00,
  0x03, 0x00, 0x00, 0x00, 0x01, 0x00, 0x00, 0x00, 0x01, 0x00, 0x00, 0x00,
  0x00, 0x00, 0x00, 0x00, 0xde, 0xff, 0xff, 0xff, 0x00, 0x00, 0x00, 0x01,
  0x01, 0x00, 0x00, 0x00, 0x04, 0x00, 0x00, 0x00, 0xfa, 0xff, 0xff, 0xff,
  0x00, 0x09, 0x06, 0x00, 0x06, 0x00, 0x05, 0x00, 0x06, 0x00, 0x00, 0x00,
  0x00, 0x09, 0x06, 0x00, 0x08, 0x00, 0x07, 0x00, 0x06, 0x00, 0x00, 0x00,
  0x00, 0x00, 0x00, 0x09
};
unsigned int converted_lite_tflite_len = 3016;
